{
  "version": "1.0",
  "truncation": null,
  "padding": null,
  "added_tokens": [
    {
      "id": 0,
      "content": "[PAD]",
      "single_word": false,
      "lstrip": false,
      "rstrip": false,
      "normalized": false,
      "special": true
    },
    {
      "id": 1,
      "content": "[UNK]",
      "single_word": false,
      "lstrip": false,
      "rstrip": false,
      "normalized": false,
      "special": true
    },
    {
      "id": 2,
      "content": "[MASK]",
      "single_word": false,
      "lstrip": false,
      "rstrip": false,
      "normalized": false,
      "special": true
    },
    {
      "id": 3,
      "content": "[BOS]",
      "single_word": false,
      "lstrip": false,
      "rstrip": false,
      "normalized": false,
      "special": true
    },
    {
      "id": 4,
      "content": "[EOS]",
      "single_word": false,
      "lstrip": false,
      "rstrip": false,
      "normalized": false,
      "special": true
    }
  ],
  "normalizer": null,
  "pre_tokenizer": {
    "type": "ByteLevel",
    "add_prefix_space": false,
    "trim_offsets": true,
    "use_regex": true
  },
  "post_processor": {
    "type": "TemplateProcessing",
    "single": [
      {
        "SpecialToken": {
          "id": "[BOS]",
          "type_id": 0
        }
      },
      {
        "Sequence": {
          "id": "A",
          "type_id": 0
        }
      },
      {
        "SpecialToken": {
          "id": "[EOS]",
          "type_id": 0
        }
      }
    ],
    "pair": [
      {
        "SpecialToken": {
          "id": "[BOS]",
          "type_id": 0
        }
      },
      {
        "Sequence": {
          "id": "A",
          "type_id": 0
        }
      },
      {
        "SpecialToken": {
          "id": "[EOS]",
          "type_id": 0
        }
      },
      {
        "SpecialToken": {
          "id": "[BOS]",
          "type_id": 1
        }
      },
      {
        "Sequence": {
          "id": "B",
          "type_id": 1
        }
      },
      {
        "SpecialToken": {
          "id": "[EOS]",
          "type_id": 1
        }
      }
    ],
    "special_tokens": {
      "[BOS]": {
        "id": "[BOS]",
        "ids": [
          3
        ],
        "tokens": [
          "[BOS]"
        ]
      },
      "[EOS]": {
        "id": "[EOS]",
        "ids": [
          4
        ],
        "tokens": [
          "[EOS]"
        ]
      }
    }
  },
  "decoder": {
    "type": "ByteLevel",
    "add_prefix_space": true,
    "trim_offsets": true,
    "use_regex": true
  },
  "model": {
    "type": "BPE",
    "dropout": null,
    "unk_token": "[UNK]",
    "continuing_subword_prefix": null,
    "end_of_word_suffix": null,
    "fuse_unk": false,
    "byte_fallback": false,
    "ignore_merges": false,
    "vocab": {
      "[PAD]": 0,
      "[UNK]": 1,
      "[MASK]": 2,
      "[BOS]": 3,
      "[EOS]": 4,
      "!": 5,
      "\"": 6,
      "#": 7,
      "$": 8,
      "%": 9,
      "&": 10,
      "'": 11,
      "(": 12,
      ")": 13,
      "*": 14,
      "+": 15,
      ",": 16,
      "-": 17,
      ".": 18,
      "/": 19,
      "0": 20,
      "1": 21,
      "2": 22,
      "3": 23,
      "4": 24,
      "5": 25,
      "6": 26,
      "7": 27,
      "8": 28,
      "9": 29,
      ":": 30,
      ";": 31,
      "<": 32,
      "=": 33,
      ">": 34,
      "?": 35,
      "@": 36,
      "A": 37,
      "B": 38,
      "C": 39,
      "D": 40,
      "E": 41,
      "F": 42,
      "G": 43,
      "H": 44,
      "I": 45,
      "J": 46,
      "K": 47,
      "L": 48,
      "M": 49,
      "N": 50,
      "O": 51,
      "P": 52,
      "Q": 53,
      "R": 54,
      "S": 55,
      "T": 56,
      "U": 57,
      "V": 58,
      "W": 59,
      "X": 60,
      "Y": 61,
      "Z": 62,
      "[": 63,
      "\\": 64,
      "]": 65,
      "^": 66,
      "_": 67,
      "`": 68,
      "a": 69,
      "b": 70,
      "c": 71,
      "d": 72,
      "e": 73,
      "f": 74,
      "g": 75,
      "h": 76,
      "i": 77,
      "j": 78,
      "k": 79,
      "l": 80,
      "m": 81,
      "n": 82,
      "o": 83,
      "p": 84,
      "q": 85,
      "r": 86,
      "s": 87,
      "t": 88,
      "u": 89,
      "v": 90,
      "w": 91,
      "x": 92,
      "y": 93,
      "z": 94,
      "{": 95,
      "|": 96,
      "}": 97,
      "~": 98,
      "¡": 99,
      "¢": 100,
      "£": 101,
      "¤": 102,
      "¥": 103,
      "¦": 104,
      "§": 105,
      "¨": 106,
      "©": 107,
      "ª": 108,
      "«": 109,
      "¬": 110,
      "®": 111,
      "¯": 112,
      "°": 113,
      "±": 114,
      "²": 115,
      "³": 116,
      "´": 117,
      "µ": 118,
      "¶": 119,
      "·": 120,
      "¸": 121,
      "¹": 122,
      "º": 123,
      "»": 124,
      "¼": 125,
      "½": 126,
      "¾": 127,
      "¿": 128,
      "Â": 129,
      "Ã": 130,
      "Ä": 131,
      "Å": 132,
      "Ç": 133,
      "È": 134,
      "É": 135,
      "Ê": 136,
      "Ë": 137,
      "Ì": 138,
      "Î": 139,
      "Ï": 140,
      "Ð": 141,
      "Ñ": 142,
      "Ô": 143,
      "Õ": 144,
      "Ø": 145,
      "Ù": 146,
      "Ú": 147,
      "Û": 148,
      "Ü": 149,
      "Ý": 150,
      "à": 151,
      "á": 152,
      "â": 153,
      "ã": 154,
      "ä": 155,
      "å": 156,
      "æ": 157,
      "ç": 158,
      "è": 159,
      "é": 160,
      "ê": 161,
      "ì": 162,
      "í": 163,
      "ï": 164,
      "ð": 165,
      "ĉ": 166,
      "Ċ": 167,
      "Ġ": 168,
      "Ģ": 169,
      "ģ": 170,
      "Ĥ": 171,
      "ĥ": 172,
      "Ħ": 173,
      "ħ": 174,
      "Ĩ": 175,
      "ĩ": 176,
      "Ī": 177,
      "ī": 178,
      "Ĭ": 179,
      "ĭ": 180,
      "Į": 181,
      "į": 182,
      "İ": 183,
      "ı": 184,
      "Ĳ": 185,
      "ĳ": 186,
      "Ĵ": 187,
      "ĵ": 188,
      "Ķ": 189,
      "ķ": 190,
      "ĸ": 191,
      "Ĺ": 192,
      "ĺ": 193,
      "Ļ": 194,
      "ļ": 195,
      "Ľ": 196,
      "ľ": 197,
      "Ŀ": 198,
      "ŀ": 199,
      "Ł": 200,
      "ł": 201,
      "Ń": 202,
      "Ġt": 203,
      "Ġa": 204,
      "he": 205,
      "in": 206,
      "er": 207,
      "Ġthe": 208,
      "on": 209,
      "re": 210,
      "Ġo": 211,
      "at": 212,
      "an": 213,
      "Ġs": 214,
      "en": 215,
      "ed": 216,
      "is": 217,
      "es": 218,
      "Ġc": 219,
      "al": 220,
      "it": 221,
      "Ġw": 222,
      "or": 223,
      "Ġan": 224,
      "Ġof": 225,
      "ar": 226,
      "Ġin": 227,
      "Ġf": 228,
      "ic": 229,
      "Ġp": 230,
      "Ġb": 231,
      "Ġand": 232,
      "ion": 233,
      "ĠA": 234,
      "ro": 235,
      "ing": 236,
      "Ġm": 237,
      "as": 238,
      "Ġto": 239,
      "le": 240,
      "Ġd": 241,
      "Ġh": 242,
      "ou": 243,
      "ent": 244,
      "st": 245,
      "il": 246,
      "om": 247,
      "ol": 248,
      "Ġre": 249,
      "ct": 250,
      "Ġe": 251,
      "Ġl": 252,
      "ĠT": 253,
      "el": 254,
      "Ġth": 255,
      "Ġn": 256,
      "ĠS": 257,
      "ly": 258,
      "ation": 259,
      "im": 260,
      "et": 261,
      "am": 262,
      "us": 263,
      "id": 264,
      "ur": 265,
      "ch": 266,
      "iv": 267,
      "ĠC": 268,
      "ce": 269,
      "Ġis": 270,
      "ad": 271,
      "Ġ1": 272,
      "ot": 273,
      "Ġ(": 274,
      "Ġas": 275,
      "ut": 276,
      "Ġfor": 277,
      "Ġbe": 278,
      "un": 279,
      "ig": 280,
      "Ġg": 281,
      "ra": 282,
      "Ġon": 283,
      "ist": 284,
      "ul": 285,
      "ĠM": 286,
      "ith": 287,
      "ir": 288,
      "ers": 289,
      "ĠI": 290,
      "Ġal": 291,
      "ĠThe": 292,
      "ĠB": 293,
      "Ġst": 294,
      "th": 295,
      "ow": 296,
      "her": 297,
      "Ġcon": 298,
      "Ġwas": 299,
      "em": 300,
      "ĠP": 301,
      "Ġwith": 302,
      "ĠH": 303,
      "ver": 304,
      "os": 305,
      "Ġby": 306,
      "Ġthat": 307,
      "um": 308,
      "ter": 309,
      "Ġwh": 310,
      "op": 311,
      "and": 312,
      "Ġpro": 313,
      "est": 314,
      "od": 315,
      "ĠE": 316,
      "Ġor": 317,
      "ies": 318,
      "'s": 319,
      "if": 320,
      "ag": 321,
      "ay": 322,
      "Ġare": 323,
      "av": 324,
      "Ġde": 325,
      "rom": 326,
      "ĠL": 327,
      "ĠG": 328,
      "Ġv": 329,
      "ate": 330,
      "Ġ2": 331,
      "Ġit": 332,
      "ab": 333,
      "ian": 334,
      "res": 335,
      "ĠR": 336,
      "Ġsu": 337,
      "Ġcom": 338,
      "ud": 339,
      "pp": 340,
      "ĠN": 341,
      "ĠW": 342,
      "oun": 343,
      "ac": 344,
      "Ġfrom": 345,
      "Ġ\"": 346,
      "Ġat": 347,
      "ĠF": 348,
      "Ġex": 349,
      "ain": 350,
      "ĠD": 351,
      "ort": 352,
      "ity": 353,
      "Ġ19": 354,
      "oc": 355,
      "ri": 356,
      "Ġhe": 357,
      "ical": 358,
      "qu": 359,
      "ant": 360,
      "00": 361,
      "Ġmo": 362,
      "ld": 363,
      "ĠIn": 364,
      "og": 365,
      "ich": 366,
      "pe": 367,
      "Ġhis": 368,
      "ia": 369,
      "Ġr": 370,
      "ial": 371,
      "Ġse": 372,
      "ated": 373,
      "ive": 374,
      "pt": 375,
      "ess": 376,
      "ill": 377,
      "ĠO": 378,
      "ĠU": 379,
      "gh": 380,
      "ment": 381,
      "Ġun": 382,
      "Ġus": 383,
      "ĠJ": 384,
      "se": 385,
      "ther": 386,
      "igh": 387,
      "ak": 388,
      "Ġwhich": 389,
      "ard": 390,
      "art": 391,
      "ĠAl": 392,
      "ure": 393,
      "ber": 394,
      "ell": 395,
      "ere": 396,
      "cl": 397,
      "ew": 398,
      "end": 399,
      "ary": 400,
      "ĠAn": 401,
      "du": 402,
      "ong": 403,
      "all": 404,
      "ction": 405,
      "Ġch": 406,
      "ave": 407,
      "ph": 408,
      "ear": 409,
      "ous": 410,
      "ast": 411,
      "Ġar": 412,
      "ang": 413,
      "Ġwere": 414,
      "ĠK": 415,
      "Ġnot": 416,
      "our": 417,
      "rit": 418,
      "Ġwor": 419,
      "ult": 420,
      "Ġle": 421,
      "ĠĊ": 422,
      "ip": 423,
      "The": 424,
      "ect": 425,
      "),": 426,
      "up": 427,
      "Ġab": 428,
      "ire": 429,
      "mer": 430,
      "iz": 431,
      "ans": 432,
      "Ġcomp": 433,
      "âĢ": 434,
      "so": 435,
      "Ġcont": 436,
      "Ġhave": 437,
      "der": 438,
      "ass": 439,
      "oll": 440,
      "ine": 441,
      "ish": 442,
      "cc": 443,
      "per": 444,
      "ore": 445,
      "ome": 446,
      "ru": 447,
      "Ġsh": 448,
      "ions": 449,
      "Ġ20": 450,
      "ence": 451,
      "ame": 452,
      "Ġalso": 453,
      "Ġhas": 454,
      "Ġint": 455,
      "Ġpl": 456,
      "ations": 457,
      "ight": 458,
      "ates": 459,
      "ge": 460,
      "ov": 461,
      "Ġk": 462,
      "ff": 463,
      "ĠSt": 464,
      "Ġits": 465,
      "ap": 466,
      "Ġad": 467,
      "act": 468,
      "ater": 469,
      "ally": 470,
      "ry": 471,
      "Ġtheir": 472,
      "ib": 473,
      "ount": 474,
      "Ġhad": 475,
      "age": 476,
      "ide": 477,
      "Ġy": 478,
      "ks": 479,
      "ub": 480,
      "clud": 481,
      "Ġother": 482,
      "ree": 483,
      "Ġwhe": 484,
      "ory": 485,
      "ely": 486,
      "ĠUn": 487,
      "pl": 488,
      "tern": 489,
      "ould": 490,
      "any": 491,
      "Ġbut": 492,
      "Ġapp": 493,
      "Ġcl": 494,
      "ace": 495,
      "ign": 496,
      "fer": 497,
      "olog": 498,
      "irst": 499,
      "ric": 500,
      "Ġim": 501,
      "ition": 502,
      "out": 503,
      "ms": 504,
      "Ġres": 505,
      "Ġsp": 506,
      "Ġen": 507,
      "Ġall": 508,
      "red": 509,
      "Ġinclud": 510,
      "âĢĵ": 511,
      "ĠAr": 512,
      "ces": 513,
      ").": 514,
      "con": 515,
      "Ġper": 516,
      "Ġpart": 517,
      "Ġdis": 518,
      "ie": 519,
      "ime": 520,
      "over": 521,
      "Ġone": 522,
      "ost": 523,
      "Ġfirst": 524,
      "ren": 525,
      "Ġtr": 526,
      "ust": 527,
      "ced": 528,
      "ound": 529,
      "ts": 530,
      "Ġte": 531,
      "ron": 532,
      "ile": 533,
      "ep": 534,
      "Ġcan": 535,
      "Ġthis": 536,
      "Ġbec": 537,
      "ĠCh": 538,
      "fter": 539,
      "19": 540,
      "ok": 541,
      "ĠTh": 542,
      "able": 543,
      "Ġbeen": 544,
      "Ġmost": 545,
      "hed": 546,
      "als": 547,
      "und": 548,
      "ĠV": 549,
      "meric": 550,
      "ance": 551,
      "ress": 552,
      "Ġ18": 553,
      "ord": 554,
      "ue": 555,
      "Ġused": 556,
      "Ġsc": 557,
      "Ġsuch": 558,
      "Ġcent": 559,
      "own": 560,
      "Ġwho": 561,
      "Ġfil": 562,
      "Ġmore": 563,
      "ough": 564,
      "In": 565,
      "uring": 566,
      "ens": 567,
      "ational": 568,
      "ism": 569,
      "wo": 570,
      "Ġcomm": 571,
      "Ġag": 572,
      "orm": 573,
      "erv": 574,
      "Ġspe": 575,
      "ack": 576,
      "Ġne": 577,
      "Ġcons": 578,
      "Ġph": 579,
      "ĠHe": 580,
      "ugh": 581,
      "ik": 582,
      "erm": 583,
      "Ġrel": 584,
      "vel": 585,
      "Ġro": 586,
      "Ġsy": 587,
      "port": 588,
      "ents": 589,
      "te": 590,
      "ors": 591,
      "Ġprodu": 592,
      "ited": 593,
      "Ġthey": 594,
      "lic": 595,
      "Ġyear": 596,
      "Ġthan": 597,
      "Ġam": 598,
      "Ġinto": 599,
      "ĠAmeric": 600,
      "amp": 601,
      "ose": 602,
      "ice": 603,
      "Ġpre": 604,
      "Ġ201": 605,
      "ob": 606,
      "Ġme": 607,
      "angu": 608,
      "ach": 609,
      "ĠAs": 610,
      "Ġgro": 611,
      "een": 612,
      "aw": 613,
      "ics": 614,
      "reat": 615,
      "Ġform": 616,
      "Ġev": 617,
      "ĠAp": 618,
      "ium": 619,
      "Ġlar": 620,
      "ĠIt": 621,
      "ade": 622,
      "aus": 623,
      "ark": 624,
      "ied": 625,
      "Ġ200": 626,
      "Ġmet": 627,
      "Ġdes": 628,
      "Ġac": 629,
      "Ġover": 630,
      "ite": 631,
      "lect": 632,
      "ari": 633,
      "Âł": 634,
      "ists": 635,
      "les": 636,
      "land": 637,
      "ular": 638,
      "ran": 639,
      "Ġsub": 640,
      "Ġj": 641,
      "ury": 642,
      "Ġ3": 643,
      "ener": 644,
      "Ġtwo": 645,
      "etw": 646,
      "Ġsome": 647,
      "ific": 648,
      "uro": 649,
      "Ġcount": 650,
      "ĠAt": 651,
      "rib": 652,
      "iss": 653,
      "ster": 654,
      "Ġrec": 655,
      "Ġlangu": 656,
      "inc": 657,
      "ted": 658,
      "ased": 659,
      "Ġart": 660,
      "Ġafter": 661,
      "Ġreg": 662,
      "ĠCon": 663,
      "ĠWar": 664,
      "Ġnum": 665,
      "Ġwould": 666,
      "ten": 667,
      "rough": 668,
      "ings": 669,
      "Ġmod": 670,
      "ward": 671,
      "ology": 672,
      "ase": 673,
      "Ġear": 674,
      "etween": 675,
      "ys": 676,
      "one": 677,
      "ollo": 678,
      "Ġmany": 679,
      "oth": 680,
      "outh": 681,
      "Ġonly": 682,
      "old": 683,
      "Ġkn": 684,
      "ĠĊĠĊ": 685,
      "ood": 686,
      "Ġatt": 687,
      "ily": 688,
      "lex": 689,
      "ities": 690,
      "ution": 691,
      "ual": 692,
      "Ġass": 693,
      "Ġfilm": 694,
      "ject": 695,
      "Ġtime": 696,
      "arch": 697,
      "very": 698,
      "ĠSe": 699,
      "ath": 700,
      "ural": 701,
      "ages": 702,
      "Ġbetween": 703,
      "\".": 704,
      "ered": 705,
      "che": 706,
      "ince": 707,
      "Ġpop": 708,
      "ond": 709,
      "are": 710,
      "Ġhim": 711,
      "Ġind": 712,
      "ft": 713,
      "Ġpr": 714,
      "gan": 715,
      "Ġpe": 716,
      "Ġso": 717,
      "Ġunder": 718,
      "cre": 719,
      "ae": 720,
      "Ġout": 721,
      "ivers": 722,
      "orth": 723,
      "ind": 724,
      "ĠAf": 725,
      "ern": 726,
      "Ġdef": 727,
      "Ġpres": 728,
      "gy": 729,
      "Ġem": 730,
      "Ġob": 731,
      "Ġwhen": 732,
      "stem": 733,
      "Ġwork": 734,
      "rab": 735,
      "oin": 736,
      "oh": 737,
      "ians": 738,
      "ĠThis": 739,
      "ient": 740,
      "Ġmay": 741,
      "Ġstate": 742,
      "Ġabout": 743,
      "Ġup": 744,
      "Ġacc": 745,
      "ative": 746,
      "Ġdif": 747,
      "ĠApollo": 748,
      "urn": 749,
      "ail": 750,
      "Ġset": 751,
      "ever": 752,
      "ved": 753,
      "Ġthere": 754,
      "cial": 755,
      "wn": 756,
      "ons": 757,
      "ures": 758,
      "rop": 759,
      "Ġduring": 760,
      "000": 761,
      "Ġinf": 762,
      "ock": 763,
      "Ġchar": 764,
      "ict": 765,
      "irect": 766,
      "velop": 767,
      "ized": 768,
      "ve": 769,
      "Ġfound": 770,
      "ĠAmerican": 771,
      "Ġinv": 772,
      "Ġthrough": 773,
      "the": 774,
      "Ġnew": 775,
      "Ġqu": 776,
      "ople": 777,
      "Ġrem": 778,
      "Ġthem": 779,
      "ublic": 780,
      "Ġfl": 781,
      "ating": 782,
      "overn": 783,
      "ander": 784,
      "ild": 785,
      "Ġ4": 786,
      "Ġinter": 787,
      "Ġra": 788,
      "Ġwhere": 789,
      "ix": 790,
      "Ġsystem": 791,
      "ne": 792,
      "ically": 793,
      "ause": 794,
      "Ġuse": 795,
      "Ġcol": 796,
      "Ġpol": 797,
      "ower": 798,
      "oci": 799,
      "ished": 800,
      "Ġwe": 801,
      "ake": 802,
      "Ġwar": 803,
      "Ġact": 804,
      "atic": 805,
      "ollow": 806,
      "Ġyears": 807,
      "ug": 808,
      "Ġest": 809,
      "ĠAm": 810,
      "Ġcentury": 811,
      "uc": 812,
      "raph": 813,
      "Ġgener": 814,
      "ays": 815,
      "ious": 816,
      "stit": 817,
      "Ġ199": 818,
      "Ġsur": 819,
      "ert": 820,
      "Ġfam": 821,
      "oy": 822,
      "Ġknown": 823,
      "inal": 824,
      "ids": 825,
      "Ġoff": 826,
      "chn": 827,
      "Ġstud": 828,
      "Ġwhile": 829,
      "ĠY": 830,
      "gest": 831,
      "Ġvari": 832,
      "ll": 833,
      "ton": 834,
      "\",": 835,
      "Ġher": 836,
      "cept": 837,
      "Ġworld": 838,
      "hen": 839,
      "Ġdevelop": 840,
      "ral": 841,
      "Ġtrans": 842,
      "ah": 843,
      "aj": 844,
      "ually": 845,
      "Ġman": 846,
      "fore": 847,
      "Ġwrit": 848,
      "oss": 849,
      "Ġprov": 850,
      "Ġincluding": 851,
      "owever": 852,
      "Ġgroup": 853,
      "Ġrep": 854,
      "Ġcall": 855,
      "ger": 856,
      "tle": 857,
      "Ġdist": 858,
      "Ġeff": 859,
      "Ġco": 860,
      "ature": 861,
      "ĠArab": 862,
      "Ġsupp": 863,
      "round": 864,
      "ident": 865,
      "ars": 866,
      "ife": 867,
      "Ġthese": 868,
      "ĠAlex": 869,
      "Ġ17": 870,
      "ban": 871,
      "20": 872,
      "Ġdo": 873,
      "Ġimp": 874,
      "Ġend": 875,
      "ram": 876,
      "Ġdirect": 877,
      "Ġext": 878,
      "Ġwell": 879,
      "ĠRe": 880,
      "ĠUnited": 881,
      "hip": 882,
      "Ġboth": 883,
      "Ġtra": 884,
      "ba": 885,
      "illion": 886,
      "cy": 887,
      "urope": 888,
      "Ġgovern": 889,
      "Ġanim": 890,
      "ments": 891,
      "Ġbo": 892,
      "Ġloc": 893,
      "yp": 894,
      "uch": 895,
      "Ġlater": 896,
      "Ġsl": 897,
      "Ġfollow": 898,
      "Ġno": 899,
      "Ġcre": 900,
      "oph": 901,
      "ĠStates": 902,
      "my": 903,
      "ĠBrit": 904,
      "cond": 905,
      "ins": 906,
      "ise": 907,
      "imes": 908,
      "Ġ5": 909,
      "Ġdiffer": 910,
      "Ġbecame": 911,
      "ike": 912,
      "Ġter": 913,
      "Ġpeople": 914,
      "ract": 915,
      "Ġcar": 916,
      "ĠInd": 917,
      "Ġsim": 918,
      "Ġthree": 919,
      "Ġbeing": 920,
      "ĠGree": 921,
      "Ġsm": 922,
      "eder": 923,
      "ulation": 924,
      "ĠAng": 925,
      "ines": 926,
      "ement": 927,
      "Ġhigh": 928,
      "Ġexp": 929,
      "Ġmain": 930,
      "ues": 931,
      "orn": 932,
      "bert": 933,
      "Ġnumber": 934,
      "Ġele": 935,
      "form": 936,
      "udi": 937,
      "Ġ196": 938,
      "cess": 939,
      "ĠEn": 940,
      "Ġdec": 941,
      "its": 942,
      "ĠSp": 943,
      "ax": 944,
      "ived": 945,
      "other": 946,
      "Ġmade": 947,
      "ĠZ": 948,
      "Ġfe": 949,
      "ĠEurope": 950,
      "ctions": 951,
      "cent": 952,
      "til": 953,
      "An": 954,
      "Ġpers": 955,
      "ĠNew": 956,
      "ĠAnd": 957,
      "Ġspec": 958,
      "ajor": 959,
      "ĠDe": 960,
      "Ġany": 961,
      "ste": 962,
      "Ġconsid": 963,
      "Ġtechn": 964,
      "elf": 965,
      "Ġorig": 966,
      "Ġcountry": 967,
      "Ġhist": 968,
      "ible": 969,
      "Ġcharact": 970,
      "ĠApp": 971,
      "Ġthen": 972,
      "li": 973,
      "Ġbl": 974,
      "ences": 975,
      "Ġoften": 976,
      "ilos": 977,
      "Ġcult": 978,
      "Ġbel": 979,
      "ograph": 980,
      "ather": 981,
      "âĢĶ": 982,
      "Ġadd": 983,
      "Ġcalled": 984,
      "Ġsign": 985,
      "Ġearly": 986,
      "Ġaut": 987,
      "ĠPro": 988,
      "ash": 989,
      "iel": 990,
      "iew": 991,
      "Ġhum": 992,
      "oln": 993,
      "Ġpartic": 994,
      "Ġlanguages": 995,
      "led": 996,
      "Ġcontin": 997,
      "iod": 998,
      "ilit": 999,
      "incoln": 1000,
      "ange": 1001,
      "Ġ6": 1002,
      "ĠJoh": 1003,
      "ruct": 1004,
      "lish": 1005,
      "Ġmed": 1006,
      "ample": 1007,
      "ision": 1008,
      "ember": 1009,
      "ĠAlexander": 1010,
      "Ġsever": 1011,
      "ky": 1012,
      "Ġent": 1013,
      "ss": 1014,
      "Ġdisc": 1015,
      "ex": 1016,
      "Ġdep": 1017,
      "gypt": 1018,
      "ute": 1019,
      "ains": 1020,
      "omp": 1021,
      "Ġlong": 1022,
      "though": 1023,
      "lished": 1024,
      "Ġrev": 1025,
      "bers": 1026,
      "Ġmajor": 1027,
      "Ġcontro": 1028,
      "ork": 1029,
      "ined": 1030,
      "ĠPh": 1031,
      "ĠLe": 1032,
      "iqu": 1033,
      "ility": 1034,
      "oman": 1035,
      "Ġret": 1036,
      "pect": 1037,
      "Ġocc": 1038,
      "Ġsch": 1039,
      "Ġ198": 1040,
      ".\"": 1041,
      "ann": 1042,
      "Ġcould": 1043,
      "ask": 1044,
      "ives": 1045,
      "Ġ,": 1046,
      "ale": 1047,
      "Ġbu": 1048,
      "ds": 1049,
      "ants": 1050,
      "Ġagain": 1051,
      "ĠArabic": 1052,
      "Ġcity": 1053,
      "uss": 1054,
      "to": 1055,
      "Ġleg": 1056,
      "lu": 1057,
      "Ġincre": 1058,
      "Ġ197": 1059,
      "Ġresult": 1060,
      "Ġsmall": 1061,
      "iter": 1062,
      "vent": 1063,
      "Ġfour": 1064,
      "Ġland": 1065,
      "conom": 1066,
      "ty": 1067,
      "ital": 1068,
      "ĠOr": 1069,
      "Ġserv": 1070,
      "els": 1071,
      "air": 1072,
      "ĠEgypt": 1073,
      "arm": 1074,
      "Ġinclude": 1075,
      "zer": 1076,
      "ĠNorth": 1077,
      "ool": 1078,
      "Ġbefore": 1079,
      "ĠLincoln": 1080,
      "ĠSh": 1081,
      "ij": 1082,
      "ting": 1083,
      "iversity": 1084,
      "Ġcommon": 1085,
      "hem": 1086,
      "Ġwater": 1087,
      "ained": 1088,
      "ick": 1089,
      "ĠAg": 1090,
      "osed": 1091,
      "Ġsecond": 1092,
      "Ġed": 1093,
      "Ġelect": 1094,
      "ively": 1095,
      "ourt": 1096,
      "ĠJohn": 1097,
      "ble": 1098,
      "Ġ7": 1099,
      "Ġdesc": 1100,
      "ful": 1101,
      "Ġmin": 1102,
      "Ġref": 1103,
      "iver": 1104,
      "ared": 1105,
      "ec": 1106,
      "Ġgovernment": 1107,
      "Ġlanguage": 1108,
      "ization": 1109,
      "ĠBritish": 1110,
      "omet": 1111,
      "ĠEm": 1112,
      "gor": 1113,
      "ĠFor": 1114,
      "aking": 1115,
      "dam": 1116,
      "Ġexample": 1117,
      "ley": 1118,
      "ides": 1119,
      "Ġpopulation": 1120,
      "Ġeffect": 1121,
      "Ġseveral": 1122,
      "Ġmon": 1123,
      "ety": 1124,
      "ha": 1125,
      "anes": 1126,
      "Ġalk": 1127,
      "Ġbecause": 1128,
      "ane": 1129,
      "ĠUnion": 1130,
      "ript": 1131,
      "olution": 1132,
      "Al": 1133,
      "Ġ'": 1134,
      "Ġeach": 1135,
      "Ġlarge": 1136,
      "Ġbased": 1137,
      "ording": 1138,
      "ĠAtl": 1139,
      "Ġ8": 1140,
      "Ġair": 1141,
      "hes": 1142,
      "hol": 1143,
      "Ġmus": 1144,
      "ided": 1145,
      "Ġamong": 1146,
      "ĠApple": 1147,
      "eg": 1148,
      "Ġname": 1149,
      "Ġstr": 1150,
      "Ġmov": 1151,
      "Ġclass": 1152,
      "yd": 1153,
      "inn": 1154,
      "Ġ.": 1155,
      "Ġimport": 1156,
      "aced": 1157,
      "Ġdifferent": 1158,
      "ke": 1159,
      "Ġnam": 1160,
      "ivil": 1161,
      "Ġlead": 1162,
      "Ġequ": 1163,
      "Ġexper": 1164,
      "enn": 1165,
      "ĠSch": 1166,
      "raft": 1167,
      "ĠThey": 1168,
      "Ġperiod": 1169,
      "ĠIs": 1170,
      "stero": 1171,
      "ccess": 1172,
      "Ġstates": 1173,
      "resent": 1174,
      "ĠOn": 1175,
      "par": 1176,
      "istic": 1177,
      "ets": 1178,
      "ternational": 1179,
      "Ġtrad": 1180,
      "Ġsupport": 1181,
      "cient": 1182,
      "yn": 1183,
      "Ġterm": 1184,
      "Ġaround": 1185,
      "yl": 1186,
      "Ġown": 1187,
      "aid": 1188,
      "estern": 1189,
      "ama": 1190,
      "Ġmodern": 1191,
      "ĠHowever": 1192,
      "rent": 1193,
      "apt": 1194,
      "ental": 1195,
      "Ġeconom": 1196,
      "ĠGreek": 1197,
      "ank": 1198,
      "Ġwill": 1199,
      "ged": 1200,
      "ised": 1201,
      "Ġback": 1202,
      "ĠAlban": 1203,
      "ued": 1204,
      "Ġestab": 1205,
      "man": 1206,
      "Ġsame": 1207,
      "Ġuntil": 1208,
      "ired": 1209,
      "Ġphilos": 1210,
      "wards": 1211,
      "sc": 1212,
      "ional": 1213,
      "sterdam": 1214,
      "ries": 1215,
      "tic": 1216,
      "Ġsince": 1217,
      "rodu": 1218,
      "stron": 1219,
      "ĠAfric": 1220,
      "Ġperson": 1221,
      "Ġdet": 1222,
      "adem": 1223,
      "az": 1224,
      "Ġlife": 1225,
      "ified": 1226,
      "epend": 1227,
      "Ġdeath": 1228,
      "ival": 1229,
      "ĠAngol": 1230,
      "Ġconsidered": 1231,
      "ilar": 1232,
      "Ġpolit": 1233,
      "orld": 1234,
      "Ġorder": 1235,
      "ier": 1236,
      "Ġrequ": 1237,
      "Ġorgan": 1238,
      "Ġinflu": 1239,
      "feder": 1240,
      "Ġthough": 1241,
      "Ġthose": 1242,
      "itch": 1243,
      "ases": 1244,
      "iet": 1245,
      "Ġspace": 1246,
      "zerba": 1247,
      "ijan": 1248,
      "zerbaijan": 1249,
      "Ġmat": 1250,
      "Ġtem": 1251,
      "Ġser": 1252,
      "iving": 1253,
      "ĠEar": 1254,
      "ological": 1255,
      "Ġprop": 1256,
      "Ġcharacter": 1257,
      "pen": 1258,
      "Ġcor": 1259,
      "ali": 1260,
      "alt": 1261,
      "Ġmuch": 1262,
      "ĠJap": 1263,
      "ĠEng": 1264,
      "omm": 1265,
      "rist": 1266,
      "ene": 1267,
      "Ġhuman": 1268,
      "io": 1269,
      "ĠSouth": 1270,
      "Ġ10": 1271,
      "Ġfamily": 1272,
      "af": 1273,
      "ately": 1274,
      "ĠSc": 1275,
      "ilitary": 1276,
      "ience": 1277,
      "ring": 1278,
      "Ġif": 1279,
      "omin": 1280,
      "Ġstat": 1281,
      "Ġsuccess": 1282,
      "Ġcap": 1283,
      "ĠUniversity": 1284,
      "Ġagainst": 1285,
      "Ġdid": 1286,
      "Ġdue": 1287,
      "Ġnon": 1288,
      "18": 1289,
      "Ġposs": 1290,
      "aut": 1291,
      "Ġtyp": 1292,
      "Ġbro": 1293,
      "Ġbod": 1294,
      "Ġnear": 1295,
      "Ġconf": 1296,
      "Ġconst": 1297,
      "Ġprog": 1298,
      "Ġplay": 1299,
      "xt": 1300,
      "Ġ186": 1301,
      "ck": 1302,
      "min": 1303,
      "Ġcrit": 1304,
      "andard": 1305,
      "Ġval": 1306,
      "Ġpresent": 1307,
      "Ġ9": 1308,
      "itions": 1309,
      "ĠGerm": 1310,
      "ĠWorld": 1311,
      "Ġrefer": 1312,
      "Ġmem": 1313,
      "ĠCl": 1314,
      "ghan": 1315,
      "Ġabort": 1316,
      "por": 1317,
      "Ġshe": 1318,
      "ĠWarhol": 1319,
      "Ġcontrol": 1320,
      "ven": 1321,
      "Ġdiv": 1322,
      "aving": 1323,
      "ĠRep": 1324,
      "ĠWh": 1325,
      "med": 1326,
      "Ġpublic": 1327,
      "ĠAzerbaijan": 1328,
      "istan": 1329,
      "reen": 1330,
      "ĠConfeder": 1331,
      "Ġappro": 1332,
      "Ġpower": 1333,
      "ĠBell": 1334,
      "serv": 1335,
      "Ġlike": 1336,
      "ricult": 1337,
      "Ġeng": 1338,
      "aska": 1339,
      "ĠUS": 1340,
      "Ġlargest": 1341,
      "Ġsimilar": 1342,
      "ony": 1343,
      "ales": 1344,
      "ission": 1345,
      "craft": 1346,
      "ĠAmsterdam": 1347,
      "way": 1348,
      "ina": 1349,
      "Ġann": 1350,
      "ĠAch": 1351,
      "Ġvery": 1352,
      "Ġindu": 1353,
      "ĠTur": 1354,
      "Ġwithin": 1355,
      "Ġarea": 1356,
      "Ġastero": 1357,
      "attle": 1358,
      "ross": 1359,
      "Ġmean": 1360,
      "ook": 1361,
      "ĠCol": 1362,
      "stein": 1363,
      "ield": 1364,
      "Ġpoin": 1365,
      "Ġastron": 1366,
      "Ġfore": 1367,
      "Ġrepresent": 1368,
      "rog": 1369,
      "ĠâĢĵ": 1370,
      "ize": 1371,
      "br": 1372,
      "Ġcur": 1373,
      "ara": 1374,
      "ĠAd": 1375,
      "throp": 1376,
      "Ġvis": 1377,
      "Ġdescrib": 1378,
      "50": 1379,
      "aim": 1380,
      "Ġmark": 1381,
      "Ġusing": 1382,
      "Ġoffic": 1383,
      "Ġallow": 1384,
      "pire": 1385,
      "Ġfact": 1386,
      "Ġgreat": 1387,
      "Ġalong": 1388,
      "Ġexpl": 1389,
      "Ġaff": 1390,
      "ality": 1391,
      "ĠAudi": 1392,
      "Ġbegan": 1393,
      "Ġadv": 1394,
      "Ġtele": 1395,
      "Ġoper": 1396,
      "ĠMus": 1397,
      "ĠĊĠĊĠĊĠĊ": 1398,
      "gorith": 1399,
      "omen": 1400,
      "lands": 1401,
      "Ġmeth": 1402,
      "ee": 1403,
      "iven": 1404,
      "alth": 1405,
      "ently": 1406,
      "rench": 1407,
      "row": 1408,
      "Ġlaw": 1409,
      "Ġgr": 1410,
      "Ġcommun": 1411,
      "Ġauth": 1412,
      "Ġshow": 1413,
      "Ġread": 1414,
      "ially": 1415,
      "osition": 1416,
      "awa": 1417,
      "Ã©": 1418,
      "ĠAc": 1419,
      "Ġsol": 1420,
      "ĠAsia": 1421,
      "Ġeven": 1422,
      "ĠAfghan": 1423,
      "Ġes": 1424,
      "Ġproduct": 1425,
      "Ġ16": 1426,
      "ended": 1427,
      "Ġvarious": 1428,
      "outher": 1429,
      "ĠThese": 1430,
      "Ġpract": 1431,
      "Ġmar": 1432,
      "ĠBC": 1433,
      "Ġshort": 1434,
      "Ġfilms": 1435,
      "outhern": 1436,
      "Ġproduction": 1437,
      "Ġorigin": 1438,
      "Ġparticular": 1439,
      "Ġrad": 1440,
      "ele": 1441,
      "uer": 1442,
      "Ġins": 1443,
      "ĠAust": 1444,
      "str": 1445,
      "ness": 1446,
      "tal": 1447,
      "instein": 1448,
      "Ġhig": 1449,
      "abama": 1450,
      "Ġide": 1451,
      "Ġoil": 1452,
      "arian": 1453,
      "Ġrest": 1454,
      "ĠAlaska": 1455,
      "Ġappe": 1456,
      "Ġpo": 1457,
      "Ġhyd": 1458,
      "Ġnow": 1459,
      "Ġfollowing": 1460,
      "ices": 1461,
      "ĠCong": 1462,
      "ĠFrench": 1463,
      "Ġinc": 1464,
      "ĠCar": 1465,
      "agn": 1466,
      "Ġlet": 1467,
      "ove": 1468,
      "Ġindepend": 1469,
      "Ġgeneral": 1470,
      "Ġ$": 1471,
      "ĠCan": 1472,
      "Ġright": 1473,
      "ĠAlbert": 1474,
      "Ġbelie": 1475,
      "cock": 1476,
      "Ġmillion": 1477,
      "ocial": 1478,
      "ried": 1479,
      "antic": 1480,
      "Ġappear": 1481,
      "Ġrelig": 1482,
      "Ġopp": 1483,
      "urther": 1484,
      "Ġarg": 1485,
      "Ġcomple": 1486,
      "Ġschool": 1487,
      "ox": 1488,
      "Ġpat": 1489,
      "ude": 1490,
      "read": 1491,
      "Ġreport": 1492,
      "etic": 1493,
      "ĠCent": 1494,
      "Ġprogram": 1495,
      "Ġfun": 1496,
      "astern": 1497,
      "Ġless": 1498,
      "Ġspecies": 1499,
      "ason": 1500,
      "Ġnational": 1501,
      "ĠBy": 1502,
      "Ġprocess": 1503,
      "Ġdesign": 1504,
      "Ġacid": 1505,
      "Ġimportant": 1506,
      "reed": 1507,
      "ata": 1508,
      "Ġfew": 1509,
      "rote": 1510,
      "ĠMar": 1511,
      "ĠHis": 1512,
      "pecial": 1513,
      "assi": 1514,
      "ternal": 1515,
      "ves": 1516,
      "ĊĊ": 1517,
      "Ġoccur": 1518,
      "ĠEarth": 1519,
      "ris": 1520,
      "Ġcourt": 1521,
      "Ġdem": 1522,
      "Ġsomet": 1523,
      "ĠNational": 1524,
      "Ġ202": 1525,
      "itchcock": 1526,
      "Ġobserv": 1527,
      "Ġsignific": 1528,
      "..": 1529,
      "ories": 1530,
      "Ġmilitary": 1531,
      "Ġlast": 1532,
      "Ġnorth": 1533,
      "imal": 1534,
      "Ġ11": 1535,
      "Ġstill": 1536,
      "illes": 1537,
      "uros": 1538,
      "Ġpub": 1539,
      "Ġevery": 1540,
      "uted": 1541,
      "open": 1542,
      "Ġperform": 1543,
      "ophy": 1544,
      "Ġfin": 1545,
      "hern": 1546,
      "ably": 1547,
      "mb": 1548,
      "empt": 1549,
      "Ġrece": 1550,
      "Ġled": 1551,
      "Ġ15": 1552,
      "otle": 1553,
      "Ġgl": 1554,
      "Ġdeveloped": 1555,
      "Ġterrit": 1556,
      "oon": 1557,
      "Ġobject": 1558,
      "Ġpolitical": 1559,
      "Ġseries": 1560,
      "Ġold": 1561,
      "ument": 1562,
      "overed": 1563,
      "Ġcountries": 1564,
      "Ġprim": 1565,
      "cing": 1566,
      "me": 1567,
      "Ġway": 1568,
      "ots": 1569,
      "Ġworks": 1570,
      "ĠArist": 1571,
      "ademy": 1572,
      "ĠAngola": 1573,
      "ipp": 1574,
      "ple": 1575,
      "ames": 1576,
      "ull": 1577,
      "Ġhead": 1578,
      "ches": 1579,
      "Ġpopular": 1580,
      "Ġstudy": 1581,
      "Ġbody": 1582,
      "II": 1583,
      "Ġla": 1584,
      "ĠRuss": 1585,
      "Ġcompany": 1586,
      "itional": 1587,
      "Ġphys": 1588,
      "urosawa": 1589,
      "ĠThere": 1590,
      "ĠPl": 1591,
      "orthern": 1592,
      ".,": 1593,
      "int": 1594,
      "imate": 1595,
      "ĠRoman": 1596,
      "ured": 1597,
      "ats": 1598,
      "atural": 1599,
      "Ġpar": 1600,
      "idd": 1601,
      "Ġwhat": 1602,
      "Ġresp": 1603,
      "ĠSea": 1604,
      "Ġhistory": 1605,
      "itic": 1606,
      "Ġlim": 1607,
      "ĠRepublic": 1608,
      "ither": 1609,
      "Ġmake": 1610,
      "Ġgo": 1611,
      "ĠAlger": 1612,
      "ĠAlabama": 1613,
      "Ġav": 1614,
      "ĠAb": 1615,
      "Ġder": 1616,
      "Ġhel": 1617,
      "Ġchild": 1618,
      "Ġmethod": 1619,
      "ĠCongress": 1620,
      "Ġsaid": 1621,
      "Ġalgorith": 1622,
      "ands": 1623,
      "aining": 1624,
      "app": 1625,
      "ĠSome": 1626,
      "ĠEmpire": 1627,
      "openha": 1628,
      "ius": 1629,
      "Ġke": 1630,
      "stitution": 1631,
      "ography": 1632,
      "eb": 1633,
      "iam": 1634,
      "eng": 1635,
      "Ġpur": 1636,
      "ether": 1637,
      "Ġincluded": 1638,
      "day": 1639,
      "eor": 1640,
      "Ġwrote": 1641,
      "Ġlin": 1642,
      "ĠAcademy": 1643,
      "bit": 1644,
      "less": 1645,
      "Ġsing": 1646,
      "Ġport": 1647,
      "acy": 1648,
      "ogn": 1649,
      "Ġreturn": 1650,
      "Ġindust": 1651,
      "openhauer": 1652,
      "dom": 1653,
      "ingu": 1654,
      "ouse": 1655,
      "ivity": 1656,
      "hers": 1657,
      "Ġproble": 1658,
      "ĠAmerica": 1659,
      "Ġregion": 1660,
      "bed": 1661,
      "face": 1662,
      "Ġmot": 1663,
      "ung": 1664,
      "ird": 1665,
      "Ġprot": 1666,
      "ccording": 1667,
      "Ġanarch": 1668,
      "Ġstruct": 1669,
      "ĠPar": 1670,
      "Ġalkali": 1671,
      "lam": 1672,
      "oot": 1673,
      "Ġsouth": 1674,
      "Ġ193": 1675,
      "ĠQ": 1676,
      "Ġer": 1677,
      "Ġstart": 1678,
      "Ġusually": 1679,
      "ril": 1680,
      "ites": 1681,
      "Ġview": 1682,
      "Ġcomput": 1683,
      "Ġhistor": 1684,
      "ean": 1685,
      "Ġabortion": 1686,
      "Ġmater": 1687,
      "Ġ12": 1688,
      "Ġsocial": 1689,
      "Ġhal": 1690,
      "Ġalthough": 1691,
      "Ġassoci": 1692,
      "Ġtheory": 1693,
      "ones": 1694,
      "ĠAfter": 1695,
      "ĠHitchcock": 1696,
      "Ġagricult": 1697,
      "Ġanthrop": 1698,
      "ĠKurosawa": 1699,
      "ĠChrist": 1700,
      "Ġgrow": 1701,
      "Ġgroups": 1702,
      "Ġstrong": 1703,
      "Ġestablished": 1704,
      "Ġcaus": 1705,
      "Ġmass": 1706,
      "omy": 1707,
      "ads": 1708,
      "akes": 1709,
      "Ġbecome": 1710,
      "ĠEnglish": 1711,
      "ched": 1712,
      "most": 1713,
      "Ġpot": 1714,
      "Ġtook": 1715,
      "Ġnov": 1716,
      "ops": 1717,
      "Ġsug": 1718,
      "Ġsignificant": 1719,
      "ta": 1720,
      "Ġbas": 1721,
      "Ġmult": 1722,
      "Ġatom": 1723,
      "Ġspok": 1724,
      "Ġauthor": 1725,
      "iation": 1726,
      "atures": 1727,
      "Ġanal": 1728,
      "ĠBer": 1729,
      "ration": 1730,
      "Ġancient": 1731,
      "ential": 1732,
      "Ġrele": 1733,
      "Ġgod": 1734,
      "Ġstandard": 1735,
      "Ġprof": 1736,
      "ĠYork": 1737,
      "iron": 1738,
      "Ġareas": 1739,
      "ertain": 1740,
      "Ġnamed": 1741,
      "ĠAchilles": 1742,
      "ule": 1743,
      "ency": 1744,
      "ĠKing": 1745,
      "Ġjust": 1746,
      "ĠGerman": 1747,
      "Ġhelp": 1748,
      "oice": 1749,
      "Ġsour": 1750,
      "Ġanother": 1751,
      "Ġword": 1752,
      "Ġintrodu": 1753,
      "Ġclaim": 1754,
      "Ġprev": 1755,
      "stitute": 1756,
      "anese": 1757,
      "une": 1758,
      "Ġproper": 1759,
      "ĠAnat": 1760,
      "Ġenc": 1761,
      "Ġrelations": 1762,
      "idence": 1763,
      "for": 1764,
      "Ġtimes": 1765,
      "Ġcamp": 1766,
      "Ġfive": 1767,
      "ington": 1768,
      "Ġwithout": 1769,
      "Ġcomb": 1770,
      "Ġwritten": 1771,
      "ĠEuropean": 1772,
      "lor": 1773,
      "Ġopen": 1774,
      "Ġbit": 1775,
      "incip": 1776,
      "ĠAgassi": 1777,
      "de": 1778,
      "Ġalche": 1779,
      "umen": 1780,
      "ĠEinstein": 1781,
      "Ġdev": 1782,
      "Ġvers": 1783,
      "rial": 1784,
      "Ġinvol": 1785,
      "pecially": 1786,
      "iatic": 1787,
      "ense": 1788,
      "Ġpass": 1789,
      "urg": 1790,
      "ivid": 1791,
      "Ġ13": 1792,
      "Ġ194": 1793,
      "sequ": 1794,
      "Ġplace": 1795,
      "ĠAristotle": 1796,
      "eum": 1797,
      "sky": 1798,
      "vers": 1799,
      "ination": 1800,
      "Ġmen": 1801,
      "ĠAlbania": 1802,
      "ĠAfrica": 1803,
      "Ġhowever": 1804,
      "Ġliter": 1805,
      "Ġchang": 1806,
      "Ġleft": 1807,
      "Ġrecord": 1808,
      "Ġdevelopment": 1809,
      "Ġver": 1810,
      "Ġcare": 1811,
      "Ġdr": 1812,
      "Ġhaving": 1813,
      "Ġlow": 1814,
      "bon": 1815,
      "Ġinst": 1816,
      "Ġpred": 1817,
      "ention": 1818,
      "ilt": 1819,
      "Ġel": 1820,
      "eth": 1821,
      "utes": 1822,
      "Ġbook": 1823,
      "Ġbuild": 1824,
      "ner": 1825,
      "ĠInternational": 1826,
      "Ġneed": 1827,
      "Ġgiven": 1828,
      "ĠJu": 1829,
      "Ġproduced": 1830,
      "ĠAndor": 1831,
      "ham": 1832,
      "ior": 1833,
      "line": 1834,
      "of": 1835,
      "ters": 1836,
      "ining": 1837,
      "ances": 1838,
      "Ġhome": 1839,
      "Ġothers": 1840,
      "ĠAfghanistan": 1841,
      "Ġsometimes": 1842,
      "Ġsold": 1843,
      "Ġbi": 1844,
      "Ġlate": 1845,
      "Ġbeg": 1846,
      "ĠBl": 1847,
      "ĠPers": 1848,
      "ĠAss": 1849,
      "ification": 1850,
      "Ġmembers": 1851,
      "Ġcase": 1852,
      "Ġforms": 1853,
      "Ġdecl": 1854,
      "Ġsuggest": 1855,
      "200": 1856,
      "cul": 1857,
      "side": 1858,
      "enced": 1859,
      "10": 1860,
      "Ġtro": 1861,
      "Ġredu": 1862,
      "Ġattempt": 1863,
      "iction": 1864,
      "ĠAlberta": 1865,
      "ĠAnatol": 1866,
      "ĠBr": 1867,
      "Ġmaterial": 1868,
      "Ġturn": 1869,
      "Ġrul": 1870,
      "ĠApril": 1871,
      "Ġlocal": 1872,
      "cle": 1873,
      "ston": 1874,
      "Ġ14": 1875,
      "Ġmetals": 1876,
      "Ġiss": 1877,
      "Ġearli": 1878,
      "ĠCanad": 1879,
      "Ġtit": 1880,
      "Ġson": 1881,
      "aries": 1882,
      "Ġfar": 1883,
      "ĠHer": 1884,
      "Ġsuff": 1885,
      "ĠWill": 1886,
      "Ġlevel": 1887,
      "Ġrelat": 1888,
      "ociety": 1889,
      "Ġmusic": 1890,
      "SA": 1891,
      "yle": 1892,
      "ze": 1893,
      "Ġsk": 1894,
      "Ġtechniqu": 1895,
      "cil": 1896,
      "Ġday": 1897,
      "ths": 1898,
      "ĠGr": 1899,
      "ĠRo": 1900,
      "Ġexist": 1901,
      "Ġsystems": 1902,
      "Ġi": 1903,
      "Ġsw": 1904,
      "Ġprom": 1905,
      "ĠAtlantic": 1906,
      "ĠSchopenhauer": 1907,
      "Ġpublished": 1908,
      "Ġtax": 1909,
      "ator": 1910,
      "Ġcivil": 1911,
      "Ġeth": 1912,
      "Ġnatural": 1913,
      "Ġsepar": 1914,
      "Ġindivid": 1915,
      "Ġanimation": 1916,
      "ret": 1917,
      "olic": 1918,
      "ruction": 1919,
      "atin": 1920,
      "itive": 1921,
      "Ġinit": 1922,
      "Ġdown": 1923,
      "ille": 1924,
      "ĠBe": 1925,
      "ements": 1926,
      "ĠAll": 1927,
      "Re": 1928,
      "bs": 1929,
      "Ġant": 1930,
      "Ġbr": 1931,
      "ĠAug": 1932,
      "ĠMed": 1933,
      "ests": 1934,
      "ĠEd": 1935,
      "abor": 1936,
      "ĠWhen": 1937,
      "phab": 1938,
      "Ġplan": 1939,
      "mit": 1940,
      "ming": 1941,
      "self": 1942,
      "Ġsent": 1943,
      "Ġmy": 1944,
      "Ġhand": 1945,
      "Ġeither": 1946,
      "Ġheld": 1947,
      "oviet": 1948,
      "Ġcoast": 1949,
      "Ġespecially": 1950,
      "Ġtreat": 1951,
      "Ġcr": 1952,
      "Ġline": 1953,
      "imately": 1954,
      "ability": 1955,
      "ĠFr": 1956,
      "Ġmeans": 1957,
      "eneral": 1958,
      "Ġpoint": 1959,
      "alk": 1960,
      "roas": 1961,
      "Ġformer": 1962,
      "Ġ192": 1963,
      "Ġsurface": 1964,
      "ergy": 1965,
      "rew": 1966,
      "Ġfinal": 1967,
      "ĠJuly": 1968,
      "used": 1969,
      "rap": 1970,
      "aken": 1971,
      "Ġshould": 1972,
      "ploy": 1973,
      "Ġcentral": 1974,
      "Ġevent": 1975,
      "Ġeduc": 1976,
      "inning": 1977,
      "ĠAugust": 1978,
      "roasiatic": 1979,
      "As": 1980,
      "fic": 1981,
      "ont": 1982,
      "Ġlight": 1983,
      "Ġcond": 1984,
      "Ġwords": 1985,
      "Ġterms": 1986,
      "Ġspoken": 1987,
      "aign": 1988,
      "Ġsal": 1989,
      "Ġdata": 1990,
      "Ġreal": 1991,
      "Ġrese": 1992,
      "Ġbeh": 1993,
      "Ġexperim": 1994,
      "On": 1995,
      "ape": 1996,
      "wh": 1997,
      "asing": 1998,
      "ify": 1999,
      "Ġculture": 2000,
      "ĠEgyptian": 2001,
      "ĠX": 2002,
      "Ġfarm": 2003,
      "Ġbor": 2004,
      "ĠMay": 2005,
      "ĠPr": 2006,
      "Ġ195": 2007,
      "uary": 2008,
      "ĠComp": 2009,
      "Ġconc": 2010,
      "ends": 2011,
      "ending": 2012,
      "Ġchange": 2013,
      "ĠArt": 2014,
      "Ġprincip": 2015,
      "oks": 2016,
      "uf": 2017,
      "vision": 2018,
      "ype": 2019,
      "Ġlower": 2020,
      "utions": 2021,
      "ĠPat": 2022,
      "ode": 2023,
      "ples": 2024,
      "Ġspecial": 2025,
      "Ġcolon": 2026,
      "Ġcrew": 2027,
      "Ġcurrent": 2028,
      "itude": 2029,
      "arily": 2030,
      "Ġbran": 2031,
      "Ġforces": 2032,
      "Ġrather": 2033,
      "ours": 2034,
      "Ġoriginal": 2035,
      "ĠJapanese": 2036,
      "ux": 2037,
      "Ġtop": 2038,
      "Ġtotal": 2039,
      "Ġrepl": 2040,
      "ĠComm": 2041,
      "ored": 2042,
      "Ġlocated": 2043,
      "Ġdescribed": 2044,
      "men": 2045,
      "Ġmust": 2046,
      "Ġgen": 2047,
      "ached": 2048,
      "ects": 2049,
      "Ġformed": 2050,
      "Ġdefe": 2051,
      "by": 2052,
      "Ġsix": 2053,
      "Ġwid": 2054,
      "ote": 2055,
      "ĠGeor": 2056,
      "avery": 2057,
      "Ġcame": 2058,
      "Ġpri": 2059,
      "Ġsee": 2060,
      "Ġdoes": 2061,
      "Ġelectron": 2062,
      "ĠAtlas": 2063,
      "Ġbir": 2064,
      "Ġdel": 2065,
      "ĠCivil": 2066,
      "Ġleast": 2067,
      "Ġcreated": 2068,
      "iddle": 2069,
      "att": 2070,
      "ĠPort": 2071,
      "ĠRiver": 2072,
      "ovsky": 2073,
      "Ġnumbers": 2074,
      "oyal": 2075,
      "ĠTurk": 2076,
      "Ex": 2077,
      "Ġident": 2078,
      "atter": 2079,
      "Ġren": 2080,
      "ush": 2081,
      "ray": 2082,
      "ope": 2083,
      "Ġvol": 2084,
      "ĠNov": 2085,
      "Ġscript": 2086,
      "Ġmeas": 2087,
      "Ġnumer": 2088,
      "Ġcapital": 2089,
      "hib": 2090,
      "isc": 2091,
      "Ġwon": 2092,
      "Ġfree": 2093,
      "Ġfood": 2094,
      "ĠSoviet": 2095,
      "Ġgenerally": 2096,
      "Ġmouth": 2097,
      "aces": 2098,
      "Ġheav": 2099,
      "phib": 2100,
      "ruba": 2101,
      "Ġnext": 2102,
      "Ġassist": 2103,
      "Ġelements": 2104,
      "Ġlaun": 2105,
      "mon": 2106,
      "ulf": 2107,
      "Ġmetal": 2108,
      "Ġrecogn": 2109,
      "Ġengine": 2110,
      "Ġ0": 2111,
      "Ġsum": 2112,
      "arn": 2113,
      "istory": 2114,
      "Ġarmy": 2115,
      "Ġhimself": 2116,
      "Ġestim": 2117,
      "Ġtechnology": 2118,
      "ashington": 2119,
      "17": 2120,
      "Ġpa": 2121,
      "ĠOther": 2122,
      "lear": 2123,
      "ott": 2124,
      "utch": 2125,
      "ift": 2126,
      "ounced": 2127,
      "Ġrun": 2128,
      "Ġacross": 2129,
      "Ġaircraft": 2130,
      "Ġtake": 2131,
      "ĠEx": 2132,
      "ptember": 2133,
      "ĠJan": 2134,
      "arkovsky": 2135,
      "Ġthroughout": 2136,
      "Ġschol": 2137,
      "action": 2138,
      "mber": 2139,
      "ym": 2140,
      "here": 2141,
      "anish": 2142,
      "ilm": 2143,
      "ĠTr": 2144,
      "ĠMoon": 2145,
      "Ġspeak": 2146,
      "Ġbitumen": 2147,
      "now": 2148,
      "ink": 2149,
      "Ġge": 2150,
      "illed": 2151,
      "rict": 2152,
      "Ġenergy": 2153,
      "ysis": 2154,
      "ĠSeptember": 2155,
      "ways": 2156,
      "ison": 2157,
      "Ġfail": 2158,
      "Ġhow": 2159,
      "ĠMarch": 2160,
      "aves": 2161,
      "ĠWestern": 2162,
      "ĠOne": 2163,
      "Ġarch": 2164,
      "SC": 2165,
      "ĠCal": 2166,
      "ades": 2167,
      "igu": 2168,
      "Ġparts": 2169,
      "ĠRev": 2170,
      "Ġbuilt": 2171,
      "Ġasteroids": 2172,
      "ai": 2173,
      "bo": 2174,
      "Ġmer": 2175,
      "lection": 2176,
      "cember": 2177,
      "Ġgu": 2178,
      "ĠLatin": 2179,
      "ĠWashington": 2180,
      "Ġjoin": 2181,
      "Ġ177": 2182,
      "Ġanimals": 2183,
      "Ġfollowed": 2184,
      "Ġcontinued": 2185,
      "ĠPhil": 2186,
      "not": 2187,
      "tin": 2188,
      "ittle": 2189,
      "Ġmaking": 2190,
      "ĠSw": 2191,
      "Ġalphab": 2192,
      "ĠPres": 2193,
      "Ġcommer": 2194,
      "Ġscreen": 2195,
      "Ġfunction": 2196,
      "rast": 2197,
      "yr": 2198,
      "Ġanime": 2199,
      "Ġarr": 2200,
      "iev": 2201,
      "Ġconsist": 2202,
      "Ġmodel": 2203,
      "Ġbroad": 2204,
      "12": 2205,
      "Ġcal": 2206,
      "Ġwomen": 2207,
      "aster": 2208,
      "Ġep": 2209,
      "eles": 2210,
      "Ġgood": 2211,
      "osp": 2212,
      "orts": 2213,
      "ĠDecember": 2214,
      "Ġthought": 2215,
      "15": 2216,
      "iom": 2217,
      "viron": 2218,
      "ĠĠ": 2219,
      "iness": 2220,
      "Ġyoun": 2221,
      "Ġrelated": 2222,
      "Ġimpro": 2223,
      "ĠWhile": 2224,
      "Ġofficial": 2225,
      "Ġsingle": 2226,
      "iers": 2227,
      "like": 2228,
      "son": 2229,
      "ery": 2230,
      "ering": 2231,
      "Ġpost": 2232,
      "Ġgra": 2233,
      "ĠFran": 2234,
      "Ġexcept": 2235,
      "Ġchoice": 2236,
      "ĠArmy": 2237,
      "Ġscient": 2238,
      "Ġinform": 2239,
      "Ġeconomy": 2240,
      "Ġcampaign": 2241,
      "Ġ-": 2242,
      "Ġtype": 2243,
      "hest": 2244,
      "ĠRand": 2245,
      "ĠDuring": 2246,
      "ocr": 2247,
      "ĠKh": 2248,
      "ected": 2249,
      "Ġsymb": 2250,
      "Ġeconomic": 2251,
      "ĠAlgeria": 2252,
      "BC": 2253,
      "uel": 2254,
      "upp": 2255,
      "Ġax": 2256,
      "Ġsat": 2257,
      "isl": 2258,
      "Ġpron": 2259,
      "ĠAber": 2260,
      "ĠEast": 2261,
      "ĠGreat": 2262,
      "Ġsuper": 2263,
      "Ġhealth": 2264,
      "Ġphot": 2265,
      "Ġevidence": 2266,
      "Ġprevious": 2267,
      "augh": 2268,
      "Ġaver": 2269,
      "ilies": 2270,
      "stead": 2271,
      "Ġmeaning": 2272,
      "ĠAndorra": 2273,
      "ĠFrance": 2274,
      "inct": 2275,
      "Ġcertain": 2276,
      "Ġthus": 2277,
      "ceed": 2278,
      "raw": 2279,
      "ister": 2280,
      "ĠGeneral": 2281,
      "Ġtrade": 2282,
      "196": 2283,
      "ĠConfederate": 2284,
      "gg": 2285,
      "lin": 2286,
      "Ġage": 2287,
      "ators": 2288,
      "Ġinternational": 2289,
      "Ġfind": 2290,
      "ols": 2291,
      "istics": 2292,
      "ula": 2293,
      "Ġconcept": 2294,
      "ĠJune": 2295,
      "Ġcontrib": 2296,
      "ief": 2297,
      "Ġsubject": 2298,
      "Ġtemper": 2299,
      "be": 2300,
      "kara": 2301,
      "Ġcapt": 2302,
      "Ġfather": 2303,
      "icated": 2304,
      "Ġmagn": 2305,
      "unar": 2306,
      "ĠII": 2307,
      "Ġalmost": 2308,
      "Ġclos": 2309,
      "Ġcarbon": 2310,
      "Ġexpress": 2311,
      "lim": 2312,
      "Ġess": 2313,
      "Ġdest": 2314,
      "Ġet": 2315,
      "Ġnorthern": 2316,
      "uries": 2317,
      "ĠDel": 2318,
      "ĠInstitute": 2319,
      "aps": 2320,
      "Ġnever": 2321,
      "ondon": 2322,
      "Ġanthropology": 2323,
      "ĠAnatolia": 2324,
      "Ġresearch": 2325,
      "Ġlive": 2326,
      "ĠShe": 2327,
      "cean": 2328,
      "ĠPol": 2329,
      "ĠDav": 2330,
      "lected": 2331,
      "Ġpresident": 2332,
      "Ġaccount": 2333,
      "Ġpossible": 2334,
      "Ġnovel": 2335,
      "Americ": 2336,
      "uk": 2337,
      "ream": 2338,
      "Ġfall": 2339,
      "ĠTe": 2340,
      "Ġthird": 2341,
      "ĠWest": 2342,
      "Ġseen": 2343,
      "play": 2344,
      "ĠChina": 2345,
      "Ġsyn": 2346,
      "Ġemploy": 2347,
      "Ġcharacters": 2348,
      "hemat": 2349,
      "ĠJapan": 2350,
      "Ġreceived": 2351,
      "ficult": 2352,
      "ges": 2353,
      "ling": 2354,
      "pite": 2355,
      "Ġtw": 2356,
      "ĠMan": 2357,
      "ĠMany": 2358,
      "Ġstar": 2359,
      "iform": 2360,
      "Ġcommand": 2361,
      "Ġdifficult": 2362,
      "ĠIndian": 2363,
      "ĠKingdom": 2364,
      "Ġconcern": 2365,
      "cer": 2366,
      "Ġpain": 2367,
      "ĠAruba": 2368,
      "Ġdial": 2369,
      "ĠPe": 2370,
      "ested": 2371,
      "Ġvow": 2372,
      "ĠDutch": 2373,
      "Ġmostly": 2374,
      "Ġdiscovered": 2375,
      "Ġphilosophy": 2376,
      "bigu": 2377,
      "Ġcir": 2378,
      "Ġproject": 2379,
      "ria": 2380,
      "Ġrange": 2381,
      "ounds": 2382,
      "ĠChar": 2383,
      "Ġ2010": 2384,
      "Ġattack": 2385,
      "Ġslavery": 2386,
      "Ġhigher": 2387,
      "Ġtroops": 2388,
      "Ph": 2389,
      "rated": 2390,
      "Ã¼": 2391,
      "Ġdoc": 2392,
      "ĠOct": 2393,
      "Ġadop": 2394,
      "Ġinfluence": 2395,
      "minist": 2396,
      "Ġindustry": 2397,
      "Ġhalf": 2398,
      "Ġrelationship": 2399,
      "ef": 2400,
      "sy": 2401,
      "Ġ&": 2402,
      "Ġchem": 2403,
      "Ġoffer": 2404,
      "Ġfurther": 2405,
      "Ġposition": 2406,
      "ĠTarkovsky": 2407,
      "Ġforce": 2408,
      "ĠBattle": 2409,
      "ĠLondon": 2410,
      "ĠAlthough": 2411,
      "Ġabs": 2412,
      "Ġcultural": 2413,
      "14": 2414,
      "iol": 2415,
      "ole": 2416,
      "ober": 2417,
      "Ġwest": 2418,
      "Ġfem": 2419,
      "Ġeast": 2420,
      "ĠTro": 2421,
      "ĠMin": 2422,
      "Ġreligious": 2423,
      "million": 2424,
      "Äģ": 2425,
      "roup": 2426,
      "Ġmoved": 2427,
      "Ġdeterm": 2428,
      "Ġasteroid": 2429,
      "rogen": 2430,
      "Ġreported": 2431,
      "ĠJanuary": 2432,
      "Ġcities": 2433,
      "Ġfield": 2434,
      "Ġmother": 2435,
      "Ġalt": 2436,
      "ards": 2437,
      "aceae": 2438,
      "Ġscience": 2439,
      "Ġknow": 2440,
      "Ġdirector": 2441,
      "Ġproducts": 2442,
      "Ġbelieved": 2443,
      "Ġassociated": 2444,
      "ĠOctober": 2445,
      "co": 2446,
      "Ã¶": 2447,
      "Ġdied": 2448,
      "ĠCourt": 2449,
      "ĠBo": 2450,
      "umb": 2451,
      "ĠNe": 2452,
      "Ġrate": 2453,
      "Ġabove": 2454,
      "ĠItal": 2455,
      "vironment": 2456,
      "Ar": 2457,
      "atory": 2458,
      "ising": 2459,
      "Ġcour": 2460,
      "ĠAccording": 2461,
      "ĠPer": 2462,
      "ĠHar": 2463,
      "Ġvict": 2464,
      "resp": 2465,
      "ront": 2466,
      "Ġremained": 2467,
      "Ġversion": 2468,
      "yg": 2469,
      "inter": 2470,
      "Ġcoll": 2471,
      "Ġmor": 2472,
      "Ġlist": 2473,
      "ament": 2474,
      "ibr": 2475,
      "ferences": 2476,
      "Ġrespect": 2477,
      "Ġdisp": 2478,
      "Ġaccept": 2479,
      "ĠAfrican": 2480,
      "Ġapprox": 2481,
      "Ġterritory": 2482,
      "ufact": 2483,
      "Ġcommercial": 2484,
      "Th": 2485,
      "Ġill": 2486,
      "Ġsouthern": 2487,
      "Ġfri": 2488,
      "Ġlost": 2489,
      "Ġgold": 2490,
      "Ġcompan": 2491,
      "199": 2492,
      "Ġpolic": 2493,
      "Ġentire": 2494,
      "Ġalgorithm": 2495,
      "year": 2496,
      "Ġdays": 2497,
      "amples": 2498,
      "otes": 2499,
      "ĠPress": 2500,
      "anding": 2501,
      "Ġneg": 2502,
      "obal": 2503,
      "Ġfamilies": 2504,
      "Ġtransl": 2505,
      "Ġincreased": 2506,
      "Ġphilosop": 2507,
      "ki": 2508,
      "sh": 2509,
      "odern": 2510,
      "Ġrank": 2511,
      "clus": 2512,
      "Ġaddition": 2513,
      "ĠWilliam": 2514,
      "American": 2515,
      "light": 2516,
      "tt": 2517,
      "Ġcause": 2518,
      "eter": 2519,
      "anted": 2520,
      "Ġincludes": 2521,
      "Ġteam": 2522,
      "Ġtypically": 2523,
      "Ġappeal": 2524,
      "Ġanalysis": 2525,
      "ino": 2526,
      "Ġfig": 2527,
      "ĠMon": 2528,
      "Ġorbit": 2529,
      "ĠNo": 2530,
      "que": 2531,
      "Ġcomplex": 2532,
      "Ġpriv": 2533,
      "Ġunderst": 2534,
      "Ġindependence": 2535,
      "ĠRussian": 2536,
      "Ġlinks": 2537,
      "Ġindividual": 2538,
      "ĠPortug": 2539,
      "Ġfund": 2540,
      "ĠIts": 2541,
      "uments": 2542,
      "Ġmaint": 2543,
      "medi": 2544,
      "Ġavail": 2545,
      "Ġchildren": 2546,
      "ebru": 2547,
      "reme": 2548,
      "Ġwestern": 2549,
      "Ġdi": 2550,
      "Ġhold": 2551,
      "ĠDem": 2552,
      "Ġable": 2553,
      "Ġship": 2554,
      "ensive": 2555,
      "ĠSpanish": 2556,
      "Ġmajority": 2557,
      "Ġestablish": 2558,
      "Ġcritic": 2559,
      "Ġmarket": 2560,
      "Ġmultip": 2561,
      "respond": 2562,
      "ebruary": 2563,
      "cur": 2564,
      "Ġcoun": 2565,
      "Ġfoc": 2566,
      "Ġbest": 2567,
      "Ġdig": 2568,
      "ĠSouthern": 2569,
      "rain": 2570,
      "Ġking": 2571,
      "Ġitself": 2572,
      "Ġclimate": 2573,
      "Ġ30": 2574,
      "Ġastronaut": 2575,
      "Ġrights": 2576,
      "Ġcomputer": 2577,
      "Ġaverage": 2578,
      "Ġtaken": 2579,
      "Ġsong": 2580,
      "Ġfac": 2581,
      "Ġfish": 2582,
      "Ġfight": 2583,
      "Ġmix": 2584,
      "Ġ190": 2585,
      "Ġadapt": 2586,
      "Ġ2014": 2587,
      "Ġtraditional": 2588,
      "Ġletter": 2589,
      "ios": 2590,
      "sp": 2591,
      "Ġcreat": 2592,
      "Ġden": 2593,
      "ĠCount": 2594,
      "Ġgave": 2595,
      "aged": 2596,
      "ĠFebruary": 2597,
      "ought": 2598,
      "Ġaccording": 2599,
      "Ġ178": 2600,
      "ĠIndia": 2601,
      "century": 2602,
      "Ġeducation": 2603,
      "uxley": 2604,
      ".)": 2605,
      "rad": 2606,
      "west": 2607,
      "heast": 2608,
      "Ġfre": 2609,
      "Ġfav": 2610,
      "Ġbus": 2611,
      "ĠAir": 2612,
      "Ġemer": 2613,
      "Ġlo": 2614,
      "unic": 2615,
      "Ġgas": 2616,
      "Ġalg": 2617,
      "emb": 2618,
      "ĠEl": 2619,
      "Ġ21": 2620,
      "Ġlarger": 2621,
      "Ġ2009": 2622,
      "Ġflight": 2623,
      "Ġfeatures": 2624,
      "Ġlegal": 2625,
      "Ġtelevision": 2626,
      "Ġhighest": 2627,
      "Ġintroduced": 2628,
      "deen": 2629,
      "iences": 2630,
      "rin": 2631,
      "Ġ[": 2632,
      "ĠAct": 2633,
      "Ġconqu": 2634,
      "Ġconcent": 2635,
      "Ġrole": 2636,
      "Ġproduce": 2637,
      "Ġregions": 2638,
      "Ġtypes": 2639,
      "Ġforeign": 2640,
      "30": 2641,
      "ked": 2642,
      "mp": 2643,
      "oid": 2644,
      "Ġreason": 2645,
      "Ġlik": 2646,
      "Ġ(\"": 2647,
      "odium": 2648,
      "Ġdeb": 2649,
      "Ġregard": 2650,
      "Ġdefin": 2651,
      "Ġmovement": 2652,
      "ĠIslam": 2653,
      "Ġproposed": 2654,
      "Ġsuccessful": 2655,
      "Ġreferred": 2656,
      "ĠCanada": 2657,
      "Ġscholars": 2658,
      "ties": 2659,
      "Ġ+": 2660,
      "Ġtrib": 2661,
      "inem": 2662,
      "Ġsize": 2663,
      "Ġdomin": 2664,
      "Ġlittle": 2665,
      "elves": 2666,
      "ĠSem": 2667,
      "chan": 2668,
      "rag": 2669,
      "ĠGod": 2670,
      "ideo": 2671,
      "Ġ2012": 2672,
      "Ġfamous": 2673,
      "Ġmanufact": 2674,
      "Ġelement": 2675,
      "Ġparticip": 2676,
      "Ġreview": 2677,
      "Ch": 2678,
      "Un": 2679,
      "iber": 2680,
      "Ġside": 2681,
      "Ġlog": 2682,
      "Ġlack": 2683,
      "Ġgre": 2684,
      "Ġstyle": 2685,
      "Ġprovince": 2686,
      "ĠJohnston": 2687,
      "Ġleading": 2688,
      "Ġhydro": 2689,
      "Ġobjects": 2690,
      "bedo": 2691,
      "Ġestimated": 2692,
      "11": 2693,
      "St": 2694,
      "nal": 2695,
      "Ġtest": 2696,
      "Ġaway": 2697,
      "reg": 2698,
      "Ġbase": 2699,
      "Ġtour": 2700,
      "ĠTo": 2701,
      "Ġprob": 2702,
      "198": 2703,
      "Ġproblems": 2704,
      "References": 2705,
      "Ġwidely": 2706,
      "ĠNovember": 2707,
      "Ġyoung": 2708,
      "Ġaxiom": 2709,
      "Ġz": 2710,
      "Ġliving": 2711,
      "Ġsea": 2712,
      "There": 2713,
      "Ġ2020": 2714,
      "Ġamphib": 2715,
      "obel": 2716,
      "Ġsubst": 2717,
      "Ġupon": 2718,
      "well": 2719,
      "Ġach": 2720,
      "ened": 2721,
      "aring": 2722,
      "ĠSy": 2723,
      "eties": 2724,
      "Ġ100": 2725,
      "istor": 2726,
      "ĠMount": 2727,
      "ption": 2728,
      "Ġ2011": 2729,
      "Ġartic": 2730,
      "isation": 2731,
      "Ġpast": 2732,
      "ems": 2733,
      "Ġuses": 2734,
      "Ġplant": 2735,
      "Ġindic": 2736,
      "Ġdefined": 2737,
      "Ġinterest": 2738,
      "ĠRevolution": 2739,
      "ĠPresident": 2740,
      "eh": 2741,
      "Ġox": 2742,
      "Ġisland": 2743,
      "Ġ24": 2744,
      "mselves": 2745,
      "Ġground": 2746,
      "Ġaccess": 2747,
      "Ġsets": 2748,
      "Ġconsider": 2749,
      "Ġincreasing": 2750,
      "Ġastronom": 2751,
      "Ġparticularly": 2752,
      "Ġlimited": 2753,
      "Ġagricultural": 2754,
      "au": 2755,
      "cular": 2756,
      "Ġsit": 2757,
      "Ġsil": 2758,
      "ĠCo": 2759,
      "ĠMac": 2760,
      "ithium": 2761,
      "ĠRes": 2762,
      "ĠWith": 2763,
      "Ġ2000": 2764,
      "Ġjud": 2765,
      "Ġrequired": 2766,
      "Ġconflic": 2767,
      "ĠChristian": 2768,
      "Ġprofess": 2769,
      "Ġeventually": 2770,
      "Ġalphabet": 2771,
      "ĠAberdeen": 2772,
      "\")": 2773,
      "gether": 2774,
      "Ġaward": 2775,
      "rest": 2776,
      "arg": 2777,
      "Ġtogether": 2778,
      "urch": 2779,
      "Ġwhose": 2780,
      "ogen": 2781,
      "ĠVol": 2782,
      "Ġwriting": 2783,
      "Ġstructure": 2784,
      "Ġtechniques": 2785,
      "Ġthemselves": 2786,
      "rel": 2787,
      "Ġinstead": 2788,
      "Ġmount": 2789,
      "ĠPart": 2790,
      "acks": 2791,
      "ĠAnkara": 2792,
      "Ġconson": 2793,
      "Ġvariety": 2794,
      "ĠBritain": 2795,
      "Ġmedia": 2796,
      "Ġtradition": 2797,
      "Ġcorrespond": 2798,
      "Ġearlier": 2799,
      "Ġavailable": 2800,
      "ĊĠ": 2801,
      "atch": 2802,
      "Ġcate": 2803,
      "Ġcases": 2804,
      "Ġpow": 2805,
      "Ġpress": 2806,
      "ĠAe": 2807,
      "Ġmission": 2808,
      "ĠMost": 2809,
      "Ġapplic": 2810,
      "Ġbecom": 2811,
      "Ġamount": 2812,
      "cret": 2813,
      "Ġactiv": 2814,
      "Ġchanges": 2815,
      "Â°": 2816,
      "Ġtre": 2817,
      "atal": 2818,
      "ana": 2819,
      "Ġsens": 2820,
      "itation": 2821,
      "Ġhost": 2822,
      "Ġlay": 2823,
      "idge": 2824,
      "Ġ25": 2825,
      "ĠState": 2826,
      "Ġwhether": 2827,
      "Ġacids": 2828,
      "ederal": 2829,
      "Ġnames": 2830,
      "ĠCentral": 2831,
      "Ġreleased": 2832,
      "External": 2833,
      "13": 2834,
      "ev": 2835,
      "ĠÃ": 2836,
      "onic": 2837,
      "Ġpos": 2838,
      "let": 2839,
      "ĠDes": 2840,
      "Ġadminist": 2841,
      "wood": 2842,
      "ĠAlbanian": 2843,
      "16": 2844,
      "At": 2845,
      "See": 2846,
      "ball": 2847,
      "ving": 2848,
      "esium": 2849,
      "Ġhon": 2850,
      "Ġnation": 2851,
      "Ġconvent": 2852,
      "ĠHuxley": 2853,
      "ĠList": 2854,
      "Ġenvironment": 2855,
      "Ġ2013": 2856,
      "Ġtravel": 2857,
      "Ġlegisl": 2858,
      "Ġincrease": 2859,
      "taic": 2860,
      "sych": 2861,
      "hing": 2862,
      "ning": 2863,
      "anced": 2864,
      "Ġsem": 2865,
      "Ġwent": 2866,
      "ctor": 2867,
      "ĠSup": 2868,
      "Ġgive": 2869,
      "Ġdeg": 2870,
      "ĠFilm": 2871,
      "Ġexpect": 2872,
      "Ġ2017": 2873,
      "Ġoutside": 2874,
      "ney": 2875,
      "Ġfeature": 2876,
      "iformes": 2877,
      "Ġaltru": 2878,
      ");": 2879,
      "gin": 2880,
      "hood": 2881,
      "wide": 2882,
      "Ġself": 2883,
      "iting": 2884,
      "Ġste": 2885,
      "Ġclose": 2886,
      "Ġrecent": 2887,
      "Ġassum": 2888,
      "Ġremains": 2889,
      "Ġdirectly": 2890,
      "Ġsmaller": 2891,
      "Ġstarted": 2892,
      "Ġtitle": 2893,
      "Cl": 2894,
      "go": 2895,
      "pro": 2896,
      "Ġion": 2897,
      "Ġsqu": 2898,
      "Ġcrop": 2899,
      "ald": 2900,
      "Ġlunar": 2901,
      "ĠHigh": 2902,
      "uman": 2903,
      "ĠAnimal": 2904,
      "ously": 2905,
      "Ġlarg": 2906,
      "rought": 2907,
      "Ġworking": 2908,
      "Ġinvest": 2909,
      "Ġwee": 2910,
      "Ġproblem": 2911,
      "Ġnumerous": 2912,
      "ler": 2913,
      "Ã«": 2914,
      "Ġey": 2915,
      "Ġeas": 2916,
      "oted": 2917,
      "uth": 2918,
      "ĠMiss": 2919,
      "Ġunivers": 2920,
      "ources": 2921,
      "Ġcompet": 2922,
      "Ġpercent": 2923,
      "Ġcenturies": 2924,
      "Ġsubsequ": 2925,
      "Ġprovided": 2926,
      "Ġimpact": 2927,
      "ĠOrder": 2928,
      "Ġmathemat": 2929,
      "Ġprimary": 2930,
      "Ġderived": 2931,
      "ĠPersian": 2932,
      "Ġapproximately": 2933,
      "Ġlargely": 2934,
      "aur": 2935,
      "ma": 2936,
      "part": 2937,
      "Ġsound": 2938,
      "Ġcop": 2939,
      "Ġdyn": 2940,
      "Ġreached": 2941,
      "Ġnuc": 2942,
      "Ġnature": 2943,
      "ĠCor": 2944,
      "ĠBar": 2945,
      "ills": 2946,
      "phalt": 2947,
      "assium": 2948,
      "obe": 2949,
      "Ġsett": 2950,
      "Ġdistrib": 2951,
      "Ġblack": 2952,
      "key": 2953,
      "Ġinfluenced": 2954,
      "Ġvalue": 2955,
      "ĠMuslim": 2956,
      "Ġgrowth": 2957,
      "Ġrelatively": 2958,
      "Ġcompanies": 2959,
      "ford": 2960,
      "ires": 2961,
      "writ": 2962,
      "Ã§": 2963,
      "Ġtru": 2964,
      "orial": 2965,
      "Ġput": 2966,
      "Ġbattle": 2967,
      "rown": 2968,
      "ulated": 2969,
      "ĠMor": 2970,
      "ĠMiddle": 2971,
      "ague": 2972,
      "Ġquant": 2973,
      "Ġtransport": 2974,
      "Ġspecific": 2975,
      "Ġforest": 2976,
      "Ġletters": 2977,
      "Ġmethods": 2978,
      "Ġsources": 2979,
      "Ġalchemy": 2980,
      "Ġethn": 2981,
      "After": 2982,
      "ASA": 2983,
      "ware": 2984,
      "Ġsaw": 2985,
      "isions": 2986,
      "Ġcer": 2987,
      "Ġcost": 2988,
      "Ġ()": 2989,
      "ĠBest": 2990,
      "Ġstage": 2991,
      "empor": 2992,
      "acus": 2993,
      "Ġtext": 2994,
      "Ġnecess": 2995,
      "Ġemph": 2996,
      "Ġinterp": 2997,
      "Ġhighly": 2998,
      "Ġoccup": 2999,
      "Ġ1980": 3000,
      "Ġmonths": 3001,
      "acedon": 3002,
      "atives": 3003,
      "Ġcell": 3004,
      "Ġcover": 3005,
      "icro": 3006,
      "Ġbet": 3007,
      "ĠAN": 3008,
      "otic": 3009,
      "Ġalways": 3010,
      "Ġwhite": 3011,
      "Ġmole": 3012,
      "Ġplaced": 3013,
      "Ġevents": 3014,
      "Ġprovide": 3015,
      "Ġeffects": 3016,
      "Ġalkanes": 3017,
      "Ġpersonal": 3018,
      "ĠMuseum": 3019,
      "Ġhydrogen": 3020,
      "Ġera": 3021,
      "ares": 3022,
      "cast": 3023,
      "sl": 3024,
      "uals": 3025,
      "hel": 3026,
      "Ġbre": 3027,
      "Ġbur": 3028,
      "Ġtown": 3029,
      "Ġhard": 3030,
      "Ġhyp": 3031,
      "ett": 3032,
      "ĠPark": 3033,
      "antine": 3034,
      "duct": 3035,
      "Ġstudies": 3036,
      "Ġ1960": 3037,
      "ledge": 3038,
      "Ġreturned": 3039,
      "Ġagriculture": 3040,
      "Ġalchem": 3041,
      "Ġbirth": 3042,
      "tinental": 3043,
      "ey": 3044,
      "Ġca": 3045,
      "Ġbrought": 3046,
      "ĠAward": 3047,
      "Ġmag": 3048,
      "lement": 3049,
      "Ġhom": 3050,
      "Ġred": 3051,
      "ĠCity": 3052,
      "ĠPa": 3053,
      "ĠHun": 3054,
      "Ġexec": 3055,
      "Ġ2006": 3056,
      "Ġserved": 3057,
      "Ġindependent": 3058,
      "Ġschools": 3059,
      "Ġ2021": 3060,
      "Ġcaused": 3061,
      "Ġliterature": 3062,
      "eff": 3063,
      "anc": 3064,
      "Ġfoot": 3065,
      "Ġmale": 3066,
      "asion": 3067,
      "amer": 3068,
      "ĠMacedon": 3069,
      "Ġalbedo": 3070,
      "Ġviol": 3071,
      "Ġcontrast": 3072,
      "Ġspread": 3073,
      "Ġdise": 3074,
      "ĠVir": 3075,
      "Ġdistinct": 3076,
      "Ġdirected": 3077,
      "Ġspacecraft": 3078,
      "Ġannounced": 3079,
      "Ġglobal": 3080,
      "Ġalgorithms": 3081,
      "ibrary": 3082,
      "ĠAege": 3083,
      "',": 3084,
      "based": 3085,
      "eus": 3086,
      "Ġur": 3087,
      "Ġtend": 3088,
      "icient": 3089,
      "Ġreb": 3090,
      "Ġreact": 3091,
      "raction": 3092,
      "Ġconn": 3093,
      "ĠHol": 3094,
      "Ġexhib": 3095,
      "Ġriver": 3096,
      "ipl": 3097,
      "ĠVal": 3098,
      "ĠAmericans": 3099,
      "ĠSpace": 3100,
      "Ġservice": 3101,
      "ription": 3102,
      "Ġphysical": 3103,
      "Ġcareer": 3104,
      "Ġalgae": 3105,
      "Ġbond": 3106,
      "omas": 3107,
      "ĠSince": 3108,
      "udd": 3109,
      "ibility": 3110,
      "Ġweight": 3111,
      "Ġsurv": 3112,
      "Ġdivided": 3113,
      "Ġsource": 3114,
      "ĠGeorge": 3115,
      "ĠSemitic": 3116,
      "ias": 3117,
      "lied": 3118,
      "Ġaudi": 3119,
      "Ġtowards": 3120,
      "Ġtoday": 3121,
      "ilities": 3122,
      "iding": 3123,
      "avy": 3124,
      "ĠGu": 3125,
      "Ġlearn": 3126,
      "Ġappoin": 3127,
      "Ġadded": 3128,
      "ields": 3129,
      "ĠAegean": 3130,
      "Am": 3131,
      "su": 3132,
      "Ġdom": 3133,
      "oul": 3134,
      "ented": 3135,
      "ĠSociety": 3136,
      "Ġonce": 3137,
      "ows": 3138,
      "ĠEastern": 3139,
      "ĠGra": 3140,
      "Ġvideo": 3141,
      "ĠNobel": 3142,
      "ĠOpen": 3143,
      "aker": 3144,
      "Ġformal": 3145,
      "Ġremain": 3146,
      "ique": 3147,
      "Ġbeginning": 3148,
      "mitted": 3149,
      "Ġspeakers": 3150,
      "aff": 3151,
      "com": 3152,
      "off": 3153,
      "win": 3154,
      "het": 3155,
      "ica": 3156,
      "leg": 3157,
      "Ġhours": 3158,
      "Ġever": 3159,
      "uture": 3160,
      "ĠPri": 3161,
      "Ġwhom": 3162,
      "Ġord": 3163,
      "Ġvarian": 3164,
      "Ġrule": 3165,
      "Ġrob": 3166,
      "Ġprevent": 3167,
      "Ġ1990": 3168,
      "Ġ50": 3169,
      "ographic": 3170,
      "anned": 3171,
      "Ġcommonly": 3172,
      "Ġreading": 3173,
      "ength": 3174,
      "Ġinformation": 3175,
      "Ġprivate": 3176,
      "ĠDemocr": 3177,
      "Ġprobably": 3178,
      "ech": 3179,
      "kn": 3180,
      "oe": 3181,
      "Ġtable": 3182,
      "Ġanat": 3183,
      "Ġfront": 3184,
      "Ġmember": 3185,
      "Ġded": 3186,
      "Ġseason": 3187,
      "Ġkilled": 3188,
      "Ġcannot": 3189,
      "195": 3190,
      "ressed": 3191,
      "ensus": 3192,
      "Ġmainly": 3193,
      "tila": 3194,
      "Ġmedical": 3195,
      "Ġallowed": 3196,
      "Ġobserved": 3197,
      "Ġbuilding": 3198,
      "Ġpolicy": 3199,
      "Ġcerem": 3200,
      "22": 3201,
      "Ġcele": 3202,
      "Ġborn": 3203,
      "Ġmid": 3204,
      "Ġmight": 3205,
      "Ġloss": 3206,
      "Ġlatter": 3207,
      "ĠCath": 3208,
      "anded": 3209,
      "ĠJew": 3210,
      "Ġ2016": 3211,
      "Ġfounded": 3212,
      "Ġanimal": 3213,
      "inese": 3214,
      "Ġhumans": 3215,
      "Ġideas": 3216,
      "Ġprimarily": 3217,
      "Ġanarchism": 3218,
      "Ġdocument": 3219,
      "Ġgreater": 3220,
      "Ġcit": 3221,
      "Ġclear": 3222,
      "Ġang": 3223,
      "Ġeight": 3224,
      "Ġeastern": 3225,
      "Ġstory": 3226,
      "estival": 3227,
      "ighb": 3228,
      "Ġarm": 3229,
      "rents": 3230,
      "Ġcommit": 3231,
      "Ġmodels": 3232,
      "oney": 3233,
      "Ġemb": 3234,
      "Ġcreate": 3235,
      "uese": 3236,
      "Ġ1970": 3237,
      "parag": 3238,
      "Ġperformed": 3239,
      "Ġanti": 3240,
      "Ġreplaced": 3241,
      "Ġdialects": 3242,
      "Ġaction": 3243,
      "Ġsociety": 3244,
      "ishes": 3245,
      "ĠAwards": 3246,
      "Ġtoo": 3247,
      "uls": 3248,
      "ĠBec": 3249,
      "Ġconstitution": 3250,
      "ume": 3251,
      "abul": 3252,
      "Ġabacus": 3253,
      "Ġcompar": 3254,
      "Ġplants": 3255,
      "Ġmeet": 3256,
      "Ġmechan": 3257,
      "Ġsubs": 3258,
      "ĠClass": 3259,
      "Ġmultiple": 3260,
      "Ġfrequ": 3261,
      "According": 3262,
      "During": 3263,
      "En": 3264,
      "ras": 3265,
      "rich": 3266,
      "uation": 3267,
      "Ġsay": 3268,
      "Ġsolution": 3269,
      "ises": 3270,
      "Ġcy": 3271,
      "Ġfull": 3272,
      "Ġmach": 3273,
      "Ġdou": 3274,
      "ido": 3275,
      "othes": 3276,
      "istry": 3277,
      "ĠMe": 3278,
      "ĠTheir": 3279,
      "iforn": 3280,
      "Ġsex": 3281,
      "izing": 3282,
      "Ġcontains": 3283,
      "Ġ187": 3284,
      "Ġrot": 3285,
      "Ġambigu": 3286,
      "Ġpresence": 3287,
      "Ġ40": 3288,
      "airs": 3289,
      "Ġdetail": 3290,
      "Ġrequire": 3291,
      "Ġinvolved": 3292,
      "ĠRobert": 3293,
      "ĠCaliforn": 3294,
      "ĠCalifornia": 3295,
      "put": 3296,
      "yth": 3297,
      "Ġaard": 3298,
      "rem": 3299,
      "ato": 3300,
      "Ġbound": 3301,
      "ĠFort": 3302,
      "Ġ2019": 3303,
      "Ġenough": 3304,
      "obs": 3305,
      "Ġquest": 3306,
      "ĠGreece": 3307,
      "Ġdiscuss": 3308,
      "Ġcomplete": 3309,
      "Ġatomic": 3310,
      "Ġseparate": 3311,
      "ya": 3312,
      "Ġten": 3313,
      "Ġwife": 3314,
      "Ġfrog": 3315,
      "rol": 3316,
      "ĠTex": 3317,
      "Ġgame": 3318,
      "ĠMc": 3319,
      "ĠIran": 3320,
      "Ġunits": 3321,
      "ĠThomas": 3322,
      "Ġwhole": 3323,
      "Ġdiscover": 3324,
      "Ġnearly": 3325,
      "Ġpoints": 3326,
      "ĠĊĠĊĠĊĠĊĠĊĠĊĠĊĠĊ": 3327,
      "Ġappeared": 3328,
      "SCII": 3329,
      "Ġbusiness": 3330,
      "gn": 3331,
      "ien": 3332,
      "ores": 3333,
      "ps": 3334,
      "onstr": 3335,
      "Ġsodium": 3336,
      "Ġ(),": 3337,
      "ĠHen": 3338,
      "iff": 3339,
      "ĠStandard": 3340,
      "Ġappell": 3341,
      "ologists": 3342,
      "Ġdiss": 3343,
      "ĠChinese": 3344,
      "197": 3345,
      "Ġ2018": 3346,
      "Ġtemple": 3347,
      "Ġplayed": 3348,
      "ĠTurkey": 3349,
      "Ġpurp": 3350,
      "Ġproperties": 3351,
      "ĠDavid": 3352,
      "Ġcirc": 3353,
      "Ġ;": 3354,
      "Ġâ": 3355,
      "indu": 3356,
      "olved": 3357,
      "lying": 3358,
      "ĠIf": 3359,
      "Ġstars": 3360,
      "ateur": 3361,
      "ĠNorthern": 3362,
      "ĠFirst": 3363,
      "Ġsequ": 3364,
      "ĠJames": 3365,
      "outheast": 3366,
      "194": 3367,
      "ĠAsian": 3368,
      "ĠParis": 3369,
      "Ġconditions": 3370,
      "Ġcalcul": 3371,
      "Ġcourts": 3372,
      "ĠPortuguese": 3373,
      "Ġult": 3374,
      "Ġfell": 3375,
      "Ġconduct": 3376,
      "umn": 3377,
      "ĠLa": 3378,
      "ports": 3379,
      "ĠConstitution": 3380,
      "Ġremov": 3381,
      "Ġtraining": 3382,
      "Ġbooks": 3383,
      "ĠSpain": 3384,
      "Ġautom": 3385,
      "Ġreflect": 3386,
      "Ġconstruction": 3387,
      "Ġappears": 3388,
      "Ġkey": 3389,
      "Ġadopted": 3390,
      "known": 3391,
      "burg": 3392,
      "rim": 3393,
      "onse": 3394,
      "ancy": 3395,
      "asons": 3396,
      "omb": 3397,
      "ĠSer": 3398,
      "ĠCoun": 3399,
      "erson": 3400,
      "ĠBut": 3401,
      "elling": 3402,
      "ĠAnt": 3403,
      "193": 3404,
      "Ġ2015": 3405,
      "Ġ2002": 3406,
      "Ġ2007": 3407,
      "Ġworked": 3408,
      "ociation": 3409,
      "Ġfeed": 3410,
      "Ġminor": 3411,
      "Ġstrate": 3412,
      "Ġoriginally": 3413,
      "Ġidea": 3414,
      "Ġdemonstr": 3415,
      "Ġrespons": 3416,
      "Ġpotassium": 3417,
      "Ġlikely": 3418,
      "Ġamphibians": 3419,
      "pid": 3420,
      "Ġcross": 3421,
      "itor": 3422,
      "road": 3423,
      "ĠSun": 3424,
      "Ġstri": 3425,
      "Ġchlor": 3426,
      "igned": 3427,
      "Ġ185": 3428,
      "Ġneighb": 3429,
      "Ġ2005": 3430,
      "Ġregular": 3431,
      "Ġrail": 3432,
      "Ġdistingu": 3433,
      "ĠShah": 3434,
      "Ġstatus": 3435,
      "Ġmagnitude": 3436,
      "Ġfocus": 3437,
      "He": 3438,
      "ror": 3439,
      "ĊĠĊ": 3440,
      "Ġwide": 3441,
      "Ġpay": 3442,
      "olf": 3443,
      "Ġlook": 3444,
      "Ġnorm": 3445,
      "amm": 3446,
      "ĠCa": 3447,
      "ĠHistory": 3448,
      "ĠGulf": 3449,
      "ĠFrom": 3450,
      "Ġarts": 3451,
      "Ġcompounds": 3452,
      "Ġspect": 3453,
      "Ġ2008": 3454,
      "Ġearth": 3455,
      "Ġ1999": 3456,
      "Ġexperience": 3457,
      "Ġconstruct": 3458,
      "ĠColumb": 3459,
      "ready": 3460,
      "Ġ2022": 3461,
      "...": 3462,
      "Ġsoldiers": 3463,
      "Ġissues": 3464,
      "Ġdefeated": 3465,
      "upper": 3466,
      "Ġcelebr": 3467,
      "rian": 3468,
      "Ġche": 3469,
      "Ġfuture": 3470,
      "Ġlingu": 3471,
      "Ġlabor": 3472,
      "Ġthous": 3473,
      "ĠSm": 3474,
      "ĠHouse": 3475,
      "Ġdeep": 3476,
      "ables": 3477,
      "elled": 3478,
      "ĠArm": 3479,
      "Ġparty": 3480,
      "Ġ189": 3481,
      "ĠAsparag": 3482,
      "ranean": 3483,
      "Ġobt": 3484,
      "Ġcharge": 3485,
      "Ġresulting": 3486,
      "Ġbranches": 3487,
      "Ġlaunched": 3488,
      "Ġastronauts": 3489,
      "emporary": 3490,
      "Ġemphas": 3491,
      "Ġcaesium": 3492,
      "ĠVirgin": 3493,
      "actions": 3494,
      "ned": 3495,
      "ĪĴ": 3496,
      "Ġsoci": 3497,
      "orph": 3498,
      "Ġbene": 3499,
      "Ġreject": 3500,
      "usc": 3501,
      "Ġstated": 3502,
      "oper": 3503,
      "Ġcome": 3504,
      "ĠOcean": 3505,
      "Ġshown": 3506,
      "ĠStud": 3507,
      "Ġimm": 3508,
      "ikido": 3509,
      "Ġrock": 3510,
      "aching": 3511,
      "ĠAttila": 3512,
      "hens": 3513,
      "Ġslaves": 3514,
      "Ġdecision": 3515,
      "Ġleaders": 3516,
      "ticles": 3517,
      "Ġcritical": 3518,
      "ĠConfederacy": 3519,
      "Ġgreatest": 3520,
      "Ġreligion": 3521,
      "ippi": 3522,
      "Ġsalam": 3523,
      "Ġbehind": 3524,
      "ĠCompany": 3525,
      "FC": 3526,
      "VA": 3527,
      "bum": 3528,
      "ground": 3529,
      "pir": 3530,
      "Ġsaf": 3531,
      "Ġsense": 3532,
      "oms": 3533,
      "Ġreaction": 3534,
      "ĠTenn": 3535,
      "Ġnight": 3536,
      "etro": 3537,
      "estic": 3538,
      "ĠRich": 3539,
      "ĠNASA": 3540,
      "Ġhero": 3541,
      "Ġplaces": 3542,
      "Ġdisplay": 3543,
      "Ġprec": 3544,
      "Ġquick": 3545,
      "Ġoffice": 3546,
      "lled": 3547,
      "Ġdecided": 3548,
      "Ġbelow": 3549,
      "iterranean": 3550,
      "Ġservices": 3551,
      "Ġsupported": 3552,
      "Ġbrother": 3553,
      "Ġannual": 3554,
      "Ġgrad": 3555,
      "ĠByz": 3556,
      "ĠBlack": 3557,
      "Ġplanet": 3558,
      "Ġborder": 3559,
      "Ġmouthw": 3560,
      "Ġpaper": 3561,
      "ĠTrans": 3562,
      "Ġbetter": 3563,
      "Ag": 3564,
      "och": 3565,
      "inary": 3566,
      "Ġcut": 3567,
      "icted": 3568,
      "Ġpsych": 3569,
      "ĠAld": 3570,
      "omer": 3571,
      "ola": 3572,
      "ĠTV": 3573,
      "Ġnomin": 3574,
      "unc": 3575,
      "Ġgames": 3576,
      "Ġalready": 3577,
      "ĠBra": 3578,
      "Ġorb": 3579,
      "ĠRoyal": 3580,
      "ĠNether": 3581,
      "ĠWe": 3582,
      "phone": 3583,
      "Ġspir": 3584,
      "Ġ2003": 3585,
      "Ġpreserv": 3586,
      "ĠAngolan": 3587,
      "Ġrepresented": 3588,
      "Ġcomplet": 3589,
      "Ġresponse": 3590,
      "ĠMediterranean": 3591,
      "ieval": 3592,
      "elesc": 3593,
      "Ġvictory": 3594,
      "ĠIslamic": 3595,
      "Ġconflict": 3596,
      "ĠCouncil": 3597,
      "Ap": 3598,
      "car": 3599,
      "ection": 3600,
      "iated": 3601,
      "mar": 3602,
      "view": 3603,
      "Ä±": 3604,
      "Ġour": 3605,
      "itt": 3606,
      "Ġhapp": 3607,
      "ĠCur": 3608,
      "igr": 3609,
      "Ġvary": 3610,
      "ĠInter": 3611,
      "Ġchall": 3612,
      "Ġcontain": 3613,
      "ibly": 3614,
      "rick": 3615,
      "Ġcenter": 3616,
      "Ġpregn": 3617,
      "Ġpeace": 3618,
      "Ġsettle": 3619,
      "Ġpossess": 3620,
      "Ġvalues": 3621,
      "Ġcommunity": 3622,
      "Ġargued": 3623,
      "Ġpotential": 3624,
      "Ġcaptured": 3625,
      "Ġweeks": 3626,
      "Con": 3627,
      "Ear": 3628,
      "cest": 3629,
      "van": 3630,
      "ÃŃ": 3631,
      "anks": 3632,
      "eds": 3633,
      "Ġfreed": 3634,
      "Ġdraw": 3635,
      "Ġislands": 3636,
      "ĠMary": 3637,
      "Ġdecre": 3638,
      "abit": 3639,
      "Ġrat": 3640,
      "alled": 3641,
      "astic": 3642,
      "ĠKore": 3643,
      "Ġaband": 3644,
      "Ġresources": 3645,
      "ression": 3646,
      "Ġ184": 3647,
      "issions": 3648,
      "issippi": 3649,
      "Ġcollection": 3650,
      "Ġactive": 3651,
      "Ġeffective": 3652,
      "Ġequival": 3653,
      "Ġpractice": 3654,
      "strong": 3655,
      "Ġbasis": 3656,
      "Ġearliest": 3657,
      "ĠTurkish": 3658,
      "80": 3659,
      "Wh": 3660,
      "comm": 3661,
      "Ġupper": 3662,
      "oned": 3663,
      "rect": 3664,
      "enins": 3665,
      "ico": 3666,
      "roy": 3667,
      "Ġdivers": 3668,
      "iles": 3669,
      "Ġlove": 3670,
      "elt": 3671,
      "Ġget": 3672,
      "ulations": 3673,
      "ĠMass": 3674,
      "Ġstop": 3675,
      "anders": 3676,
      "ĠGen": 3677,
      "rief": 3678,
      "Ġmove": 3679,
      "Ġseven": 3680,
      "berg": 3681,
      "Ġimmedi": 3682,
      "Ġ2001": 3683,
      "vey": 3684,
      "Ġstudents": 3685,
      "Ġmuseum": 3686,
      "Ġturned": 3687,
      "Ġlevels": 3688,
      "ĠCatholic": 3689,
      "ĠTexas": 3690,
      "ao": 3691,
      "king": 3692,
      "lo": 3693,
      "rative": 3694,
      "Ġtaking": 3695,
      "Ġmakes": 3696,
      "Ġrecon": 3697,
      "adic": 3698,
      "ĠMer": 3699,
      "aint": 3700,
      "Ġcomposed": 3701,
      "Ġcompared": 3702,
      "rust": 3703,
      "ĠArch": 3704,
      "Ġphon": 3705,
      "ĠContinental": 3706,
      "Ġdefend": 3707,
      "liament": 3708,
      "Ġlonger": 3709,
      "Ġvisit": 3710,
      "Ġoperations": 3711,
      "ĠBCE": 3712,
      "ĠCenter": 3713,
      "Ġterritories": 3714,
      "Ġoldest": 3715,
      "Ġmotion": 3716,
      "Ġhistorical": 3717,
      "Ġclaimed": 3718,
      "Ġchemical": 3719,
      "ehic": 3720,
      "Ġcitiz": 3721,
      "Af": 3722,
      "For": 3723,
      "aph": 3724,
      "field": 3725,
      "ship": 3726,
      "work": 3727,
      "isms": 3728,
      "Ġegg": 3729,
      "ellect": 3730,
      "igation": 3731,
      "anda": 3732,
      "Ġpromin": 3733,
      "ĠLibrary": 3734,
      "ĠGroup": 3735,
      "ĠFarm": 3736,
      "ector": 3737,
      "ference": 3738,
      "ĠChurch": 3739,
      "undred": 3740,
      "ĠReg": 3741,
      "Ġcarried": 3742,
      "Ġcontinu": 3743,
      "ĠSchool": 3744,
      "Ġtechnique": 3745,
      "Ġlaunch": 3746,
      "ĠTechn": 3747,
      "Ġknowledge": 3748,
      "Ġtrue": 3749,
      "ĠVirginia": 3750,
      "ging": 3751,
      "Åį": 3752,
      "itect": 3753,
      "Ġwinter": 3754,
      "Ġfert": 3755,
      "ĠGovern": 3756,
      "Ġrise": 3757,
      "izations": 3758,
      "Ġresist": 3759,
      "reng": 3760,
      "Ġacqu": 3761,
      "Ġjour": 3762,
      "Ġtherefore": 3763,
      "Ġsurround": 3764,
      "Ġended": 3765,
      "ext": 3766,
      "Ġresulted": 3767,
      "Ġequal": 3768,
      "ĠEngland": 3769,
      "ĠAustroasiatic": 3770,
      "Ġkeep": 3771,
      "Ġproperty": 3772,
      "which": 3773,
      "Ġprior": 3774,
      "Ġfailed": 3775,
      "ĠNetherlands": 3776,
      "met": 3777,
      "nel": 3778,
      "sis": 3779,
      "Ġinj": 3780,
      "ĠASCII": 3781,
      "Ġlithium": 3782,
      "ĠTer": 3783,
      "ĠCam": 3784,
      "ĠCamp": 3785,
      "Ġaspect": 3786,
      "Ġasked": 3787,
      "utive": 3788,
      "odes": 3789,
      "Ġ26": 3790,
      "Ġrival": 3791,
      "Ġund": 3792,
      "Ġkind": 3793,
      "apers": 3794,
      "rying": 3795,
      "Ġartist": 3796,
      "Ġvarieties": 3797,
      "ophical": 3798,
      "ĠZeus": 3799,
      "ĠAndy": 3800,
      "Ġsigned": 3801,
      "Ġrespectively": 3802,
      "unicip": 3803,
      "ville": 3804,
      "Ġopt": 3805,
      "Ġinternal": 3806,
      "Ġfran": 3807,
      "Ġfederal": 3808,
      "Ġmilit": 3809,
      "Ġdaugh": 3810,
      "Ġhouse": 3811,
      "ĠTele": 3812,
      "Ġnoun": 3813,
      "Ġnative": 3814,
      "idents": 3815,
      "igen": 3816,
      "ĠPal": 3817,
      "ĠGl": 3818,
      "Ġris": 3819,
      "ĠOtt": 3820,
      "ĠUN": 3821,
      "earch": 3822,
      "Ġshare": 3823,
      "Ġinteg": 3824,
      "ampions": 3825,
      "obile": 3826,
      "Ġacadem": 3827,
      "Ġartists": 3828,
      "Ġflu": 3829,
      "Ġefforts": 3830,
      "Ġlocation": 3831,
      "Ġreven": 3832,
      "Ġresults": 3833,
      "Ġmoving": 3834,
      "Ġdeaths": 3835,
      "Ġpresented": 3836,
      "ĠRussia": 3837,
      "Ġbasic": 3838,
      "Ġneeded": 3839,
      "ĠGrant": 3840,
      "Ġbranch": 3841,
      "ĠPhilip": 3842,
      "Ġhypothes": 3843,
      "25": 3844,
      "arent": 3845,
      "ira": 3846,
      "rans": 3847,
      "yond": 3848,
      "Ġaim": 3849,
      "Ġsac": 3850,
      "Ġcinem": 3851,
      "Ġburn": 3852,
      "ros": 3853,
      "lege": 3854,
      "Ġhous": 3855,
      "ĠIII": 3856,
      "Ġalbum": 3857,
      "Ġstreng": 3858,
      "Ġconv": 3859,
      "oses": 3860,
      "aval": 3861,
      "ĠRom": 3862,
      "pped": 3863,
      "akh": 3864,
      "acter": 3865,
      "cluding": 3866,
      "Ġcollect": 3867,
      "ollowing": 3868,
      "Ġworldwide": 3869,
      "Ġwriters": 3870,
      "Ġslow": 3871,
      "formation": 3872,
      "Ġdecades": 3873,
      "Ġedition": 3874,
      "ĠGermany": 3875,
      "Ġcommunic": 3876,
      "Ġdesigned": 3877,
      "Ġopened": 3878,
      "Ġinitially": 3879,
      "Ġtreatment": 3880,
      "Ġjoined": 3881,
      "Ġfavor": 3882,
      "uddh": 3883,
      "Ġanatomy": 3884,
      "LA": 3885,
      "NA": 3886,
      "ca": 3887,
      "we": 3888,
      "Ġwall": 3889,
      "Ġinh": 3890,
      "Ġple": 3891,
      "Ġpric": 3892,
      "enth": 3893,
      "olit": 3894,
      "lymp": 3895,
      "ĠOld": 3896,
      "ĠAnim": 3897,
      "Ġyet": 3898,
      "ferred": 3899,
      "anguage": 3900,
      "Ġsoil": 3901,
      "Ġweak": 3902,
      "Ġradio": 3903,
      "Ġstructures": 3904,
      "Ġstandards": 3905,
      "Ġsuggested": 3906,
      "Ġbehav": 3907,
      "Ġscientific": 3908,
      "Ġphilosophers": 3909,
      "Ġbreak": 3910,
      "ael": 3911,
      "ii": 3912,
      "mission": 3913,
      "Ã¡": 3914,
      "Ġawards": 3915,
      "Ġtheore": 3916,
      "ora": 3917,
      "Ġpoll": 3918,
      "Ġmention": 3919,
      "Ġdire": 3920,
      "Ġnom": 3921,
      "ĠSel": 3922,
      "change": 3923,
      "Ġforced": 3924,
      "Ġaltern": 3925,
      "ump": 3926,
      "Ġvia": 3927,
      "Ġvehic": 3928,
      "ipment": 3929,
      "Ġcontact": 3930,
      "ĠArmen": 3931,
      "ĠArticles": 3932,
      "Ġamateur": 3933,
      "ĠCont": 3934,
      "Ġsoft": 3935,
      "Ġ60": 3936,
      "Ġdepos": 3937,
      "ĠIsland": 3938,
      "Ġbodies": 3939,
      "Ġatoms": 3940,
      "Ġgods": 3941,
      "force": 3942,
      "Ġrecorded": 3943,
      "ĠAssociation": 3944,
      "Ġetc": 3945,
      "Ġactivities": 3946,
      "billion": 3947,
      "haps": 3948,
      "lar": 3949,
      "na": 3950,
      "rate": 3951,
      "Ġtrial": 3952,
      "Ġinstit": 3953,
      "ĠAqu": 3954,
      "Ġlines": 3955,
      "Ġlength": 3956,
      "lywood": 3957,
      "aded": 3958,
      "Ġasphalt": 3959,
      "ĠMal": 3960,
      "ĠLou": 3961,
      "iant": 3962,
      "ograp": 3963,
      "ĠOlymp": 3964,
      "duc": 3965,
      "Ġyou": 3966,
      "Ġspeech": 3967,
      "Ġconsum": 3968,
      "Ġjur": 3969,
      "Ġrapid": 3970,
      "Ġdistance": 3971,
      "And": 3972,
      "Ġmedic": 3973,
      "ĠEgyptians": 3974,
      "Ġclassical": 3975,
      "Ġverb": 3976,
      "Ġsummer": 3977,
      "Ġclosely": 3978,
      "Ġfriend": 3979,
      "Ġastronomers": 3980,
      "Ġaltruism": 3981,
      "ĠMississippi": 3982,
      "Ġdedicated": 3983,
      "ĠArmstrong": 3984,
      "eninsula": 3985,
      "\"),": 3986,
      "24": 3987,
      "SI": 3988,
      "TA": 3989,
      "uge": 3990,
      "war": 3991,
      "Ġtelesc": 3992,
      "Ġsite": 3993,
      "Ġsalt": 3994,
      "ena": 3995,
      "Ġwoman": 3996,
      "orpor": 3997,
      "Ġancest": 3998,
      "ĠAri": 3999,
      "Ġmoney": 4000,
      "ĠSl": 4001,
      "idium": 4002,
      "otion": 4003,
      "ĠMag": 4004,
      "Ġconsequ": 4005,
      "ĠLet": 4006,
      "Ġ27": 4007,
      "Ġrub": 4008,
      "Ġspent": 4009,
      "Ġdirectors": 4010,
      "Ġadditional": 4011,
      "Ġmovie": 4012,
      "Ġmatter": 4013,
      "Ġabortions": 4014,
      "Ġmaterials": 4015,
      "ĠGeorg": 4016,
      "Ġsymbol": 4017,
      "Ġdestroy": 4018,
      "Ġvowel": 4019,
      "Ġvowels": 4020,
      "ĠCounty": 4021,
      "ĠParty": 4022,
      "Ġconsonants": 4023,
      "ĠBecause": 4024,
      "ĠClassical": 4025,
      "):": 4026,
      "fred": 4027,
      "aters": 4028,
      "isd": 4029,
      "aling": 4030,
      "Ġwood": 4031,
      "arc": 4032,
      "arter": 4033,
      "Ġhundred": 4034,
      "ida": 4035,
      "uter": 4036,
      "ĠModern": 4037,
      "Ġstru": 4038,
      "ĠPac": 4039,
      "osis": 4040,
      "osal": 4041,
      "osing": 4042,
      "ĠNap": 4043,
      "ĠNavy": 4044,
      "Ġ1950": 4045,
      "ĠOsc": 4046,
      "asty": 4047,
      "dered": 4048,
      "Ġreserv": 4049,
      "Ġtex": 4050,
      "Ġagre": 4051,
      "Ġelection": 4052,
      "Ġcommunities": 4053,
      "Ġoccurred": 4054,
      "Ġfinally": 4055,
      "Ġmotor": 4056,
      "Ġauthority": 4057,
      "Ġdevices": 4058,
      "Ġbroadcast": 4059,
      "Ġtemperature": 4060,
      "Ġdefinition": 4061,
      "Ġexpected": 4062,
      "Ġquickly": 4063,
      "igenous": 4064,
      "History": 4065,
      "Other": 4066,
      "spe": 4067,
      "orage": 4068,
      "Ġpun": 4069,
      "ĠAD": 4070,
      "Ġmill": 4071,
      "Ġdram": 4072,
      "Ġlab": 4073,
      "imb": 4074,
      "amed": 4075,
      "usic": 4076,
      "ĠBoth": 4077,
      "vert": 4078,
      "ĠLos": 4079,
      "Ġvill": 4080,
      "riage": 4081,
      "ĠAltaic": 4082,
      "ĠAnother": 4083,
      "ĠĊĊ": 4084,
      "ights": 4085,
      "ĠSte": 4086,
      "Ġago": 4087,
      "Ġconsists": 4088,
      "Ġevolution": 4089,
      "Ġremaining": 4090,
      "ixed": 4091,
      "Ġslave": 4092,
      "ĠAngeles": 4093,
      "ĠLee": 4094,
      "Ġminutes": 4095,
      "Ġorganization": 4096,
      "Ġserious": 4097,
      "ĠAzerbaijani": 4098,
      "Ġpoor": 4099,
      "Ġgrowing": 4100,
      "ĠBerber": 4101,
      "Ġcombined": 4102,
      "Ġexperiment": 4103,
      "ĠCharles": 4104,
      "Ġaccepted": 4105,
      "Ġships": 4106,
      "Ġcounter": 4107,
      "ĠHenry": 4108,
      "nd": 4109,
      "uff": 4110,
      "Ġcode": 4111,
      "Ġwind": 4112,
      "Ġinn": 4113,
      "Ġbar": 4114,
      "Ġdam": 4115,
      "Ġhor": 4116,
      "Ġreasons": 4117,
      "ĠTal": 4118,
      "Ġnar": 4119,
      "Ġbeyond": 4120,
      "Ġgraph": 4121,
      "ĠMet": 4122,
      "ĠGreen": 4123,
      "aches": 4124,
      "Ġexam": 4125,
      "ĠInt": 4126,
      "ĠJobs": 4127,
      "artment": 4128,
      "ĠAncient": 4129,
      "Ġnoted": 4130,
      "ective": 4131,
      "Ġcompon": 4132,
      "Ġneut": 4133,
      "Ġdespite": 4134,
      "Ġrare": 4135,
      "Ġwhereas": 4136,
      "ception": 4137,
      "Ġbelong": 4138,
      "Ġrefers": 4139,
      "Ġclassification": 4140,
      "Ġequipment": 4141,
      "ĠScott": 4142,
      "Ġ1861": 4143,
      "Ġlaws": 4144,
      "Ġshows": 4145,
      "Ġcompleted": 4146,
      "ĠRepublican": 4147,
      "Ġindustrial": 4148,
      "ĠPatri": 4149,
      "Ġrecognized": 4150,
      "curity": 4151,
      "Ġinterpret": 4152,
      "Ġurban": 4153,
      "Ġappellate": 4154,
      "dd": 4155,
      "lies": 4156,
      "oz": 4157,
      "vant": 4158,
      "Ġ=": 4159,
      "Ġir": 4160,
      "ĠâĢ": 4161,
      "eral": 4162,
      "rec": 4163,
      "Ġop": 4164,
      "ancial": 4165,
      "Ġspl": 4166,
      "Ġcred": 4167,
      "Ġcoin": 4168,
      "Ġfa": 4169,
      "ĠAut": 4170,
      "Ġdon": 4171,
      "Ġliqu": 4172,
      "ĠSal": 4173,
      "irt": 4174,
      "Ġproced": 4175,
      "Ġ23": 4176,
      "Ġuns": 4177,
      "ĠKent": 4178,
      "Ġintellect": 4179,
      "Ġ183": 4180,
      "Ġsoon": 4181,
      "icture": 4182,
      "ictions": 4183,
      "ucky": 4184,
      "Ġ1995": 4185,
      "Ġstudied": 4186,
      "Ġelections": 4187,
      "azine": 4188,
      "ĠAlgerian": 4189,
      "ĠCanadian": 4190,
      "Ġmeasure": 4191,
      "Ġarchitect": 4192,
      "Ġpreviously": 4193,
      "ĠItaly": 4194,
      "Ġsemi": 4195,
      "Ġalchemical": 4196,
      "Ġceremony": 4197,
      "Ġquestion": 4198,
      "ĠPacific": 4199,
      "Ġtexts": 4200,
      "23": 4201,
      "FI": 4202,
      "rm": 4203,
      "Ġsus": 4204,
      "alities": 4205,
      "Ġbrief": 4206,
      "Ġmis": 4207,
      "Ġmel": 4208,
      "Ġhar": 4209,
      "Ġthreat": 4210,
      "ĠSant": 4211,
      "use": 4212,
      "ĠCE": 4213,
      "ĠMex": 4214,
      "ĠIll": 4215,
      "agement": 4216,
      "Ġunit": 4217,
      "ultural": 4218,
      "Ġattract": 4219,
      "ĠSecond": 4220,
      "Ġextens": 4221,
      "ĠProto": 4222,
      "ĠPhilos": 4223,
      "Ġreduced": 4224,
      "Ġdefeat": 4225,
      "Ġachie": 4226,
      "Ġcrops": 4227,
      "Apollo": 4228,
      "27": 4229,
      "60": 4230,
      "ees": 4231,
      "nes": 4232,
      "rid": 4233,
      "Ġions": 4234,
      "Ġpra": 4235,
      "Ġbra": 4236,
      "Ġdipl": 4237,
      "olar": 4238,
      "amic": 4239,
      "unity": 4240,
      "ĠMich": 4241,
      "Ġconstit": 4242,
      "ĠHistor": 4243,
      "umin": 4244,
      "Ġproceed": 4245,
      "Ġexamples": 4246,
      "ĠDep": 4247,
      "Ġrang": 4248,
      "teen": 4249,
      "Ġ1969": 4250,
      "Ġblood": 4251,
      "Ġcontinue": 4252,
      "Ġelected": 4253,
      "ĠEarly": 4254,
      "ĠScot": 4255,
      "Ġoccurs": 4256,
      "Ġanarchist": 4257,
      "Ġdeclared": 4258,
      "Ġoffered": 4259,
      "Ġillust": 4260,
      "Ġranked": 4261,
      "Ġbecoming": 4262,
      "Ġappointed": 4263,
      "Ġcitizens": 4264,
      "Ġjurisd": 4265,
      "DP": 4266,
      "TO": 4267,
      "fl": 4268,
      "ients": 4269,
      "ibert": 4270,
      "more": 4271,
      "ening": 4272,
      "oring": 4273,
      "Ġbreed": 4274,
      "Ġmicro": 4275,
      "Ġmunicip": 4276,
      "ĠSim": 4277,
      "imum": 4278,
      "Ġstep": 4279,
      "ĠHindu": 4280,
      "antly": 4281,
      "Ġseg": 4282,
      "essee": 4283,
      "ĠOb": 4284,
      "ender": 4285,
      "Ġnotes": 4286,
      "Ġability": 4287,
      "Ġshared": 4288,
      "Ġapplied": 4289,
      "Ġcreation": 4290,
      "ĠGreeks": 4291,
      "Ġ1968": 4292,
      "Ġentered": 4293,
      "Ġ1862": 4294,
      "Ġrules": 4295,
      "ĠGrand": 4296,
      "Ġmyth": 4297,
      "Ġheavy": 4298,
      "Ġgrav": 4299,
      "Ġfemale": 4300,
      "Ġfighting": 4301,
      "Ġmathematics": 4302,
      "Ġethnic": 4303,
      "ĠValley": 4304,
      "Ġrejected": 4305,
      "When": 4306,
      "rical": 4307,
      "time": 4308,
      "ying": 4309,
      "Ġwinn": 4310,
      "Ġfif": 4311,
      "Ġfire": 4312,
      "Ġmur": 4313,
      "Ġdone": 4314,
      "oura": 4315,
      "Ġthink": 4316,
      "Ġgives": 4317,
      "ĠBir": 4318,
      "ĠHerm": 4319,
      "ĠGre": 4320,
      "ĠFl": 4321,
      "ĠDon": 4322,
      "Ġseem": 4323,
      "Ġnotable": 4324,
      "Ġcontemporary": 4325,
      "Ġadj": 4326,
      "Ġ188": 4327,
      "arius": 4328,
      "Ġrain": 4329,
      "Ġimplement": 4330,
      "Ġ1962": 4331,
      "ĠAndre": 4332,
      "Ġlanding": 4333,
      "Ġleader": 4334,
      "Ġdivision": 4335,
      "ĠCarol": 4336,
      "Ġpattern": 4337,
      "ĊĊĠ": 4338,
      "Ġprinciple": 4339,
      "Ġcolonial": 4340,
      "Ġpronunc": 4341,
      "ĠMountains": 4342,
      "Ġdistribution": 4343,
      "ĠColumbia": 4344,
      "ĠByzantine": 4345,
      "Ġcompletely": 4346,
      "Ġdaughter": 4347,
      "ĠOttoman": 4348,
      "Further": 4349,
      "Notes": 4350,
      "OVA": 4351,
      "Some": 4352,
      "iy": 4353,
      "set": 4354,
      "âĪĴ": 4355,
      "Ġtail": 4356,
      "head": 4357,
      "inth": 4358,
      "Ġsn": 4359,
      "Ġsales": 4360,
      "Ġfle": 4361,
      "Ġfast": 4362,
      "ceae": 4363,
      "ada": 4364,
      "ĠHuman": 4365,
      "Ġ22": 4366,
      "Ġsector": 4367,
      "ears": 4368,
      "ulture": 4369,
      "Ġagreed": 4370,
      "Ġ2004": 4371,
      "Ġattrib": 4372,
      "ĠAfroasiatic": 4373,
      "Ġactivity": 4374,
      "Ġ1991": 4375,
      "Ġelectric": 4376,
      "Ġphilosophical": 4377,
      "Ġesc": 4378,
      "Ġpatent": 4379,
      "Ġphysic": 4380,
      "Ġchanged": 4381,
      "ifying": 4382,
      "ĠTurkic": 4383,
      "Ġsynthe": 4384,
      "oleon": 4385,
      "ĠItalian": 4386,
      "Ġfriends": 4387,
      "inois": 4388,
      "Ġcategor": 4389,
      "Ġeyes": 4390,
      "Ġforests": 4391,
      "Ġaardv": 4392,
      "Ġabandoned": 4393,
      "%.": 4394,
      "By": 4395,
      "book": 4396,
      "cies": 4397,
      "comp": 4398,
      "km": 4399,
      "ply": 4400,
      "wan": 4401,
      "inces": 4402,
      "Ġcovered": 4403,
      "oric": 4404,
      "ĠAge": 4405,
      "Ġreve": 4406,
      "ĠTwo": 4407,
      "ĠSam": 4408,
      "ulate": 4409,
      "ĠMat": 4410,
      "ĠBay": 4411,
      "ĠBuddh": 4412,
      "ĠEth": 4413,
      "ĠNa": 4414,
      "ĠOver": 4415,
      "arden": 4416,
      "ellen": 4417,
      "ellig": 4418,
      "Ġabol": 4419,
      "Ġcontaining": 4420,
      "Ġimpl": 4421,
      "Ġpref": 4422,
      "etwork": 4423,
      "ĠProt": 4424,
      "Ġfourth": 4425,
      "tym": 4426,
      "Ġpossibly": 4427,
      "Ġvisual": 4428,
      "Ġmarked": 4429,
      "Ġfactors": 4430,
      "Ġpoet": 4431,
      "Ġincorpor": 4432,
      "Ġolder": 4433,
      "Ġcauses": 4434,
      "Ġdetermined": 4435,
      "Ġphilosopher": 4436,
      "ĠResearch": 4437,
      "Ġprofessional": 4438,
      "Ġmountain": 4439,
      "Ġpowers": 4440,
      "ĠSupreme": 4441,
      "Ġcells": 4442,
      "ĠTennessee": 4443,
      "Ġspirit": 4444,
      "ĠKentucky": 4445,
      "'t": 4446,
      "bor": 4447,
      "coh": 4448,
      "ka": 4449,
      "val": 4450,
      "hetic": 4451,
      "enes": 4452,
      "edy": 4453,
      "Ġcust": 4454,
      "aled": 4455,
      "alle": 4456,
      "Ġbank": 4457,
      "Ġlived": 4458,
      "Ġthings": 4459,
      "ĠSan": 4460,
      "ully": 4461,
      "ĠMy": 4462,
      "Ġstay": 4463,
      "aging": 4464,
      "ĠLil": 4465,
      "Ġ29": 4466,
      "Ġapparent": 4467,
      "ologies": 4468,
      "Ġcentre": 4469,
      "tee": 4470,
      "Ġprep": 4471,
      "achus": 4472,
      "Ġ33": 4473,
      "Ġextrem": 4474,
      "Ġcontrovers": 4475,
      "Ġincreases": 4476,
      "ĠScience": 4477,
      "Ġappearance": 4478,
      "Ġfinancial": 4479,
      "Ġsignificantly": 4480,
      "Ġpassed": 4481,
      "ygen": 4482,
      "ĠDespite": 4483,
      "Ġnecessary": 4484,
      "Ġdisease": 4485,
      "ĠHollywood": 4486,
      "Ġorders": 4487,
      "Ġbenef": 4488,
      "Ġdiplom": 4489,
      "40": 4490,
      "From": 4491,
      "With": 4492,
      "cium": 4493,
      "since": 4494,
      "uz": 4495,
      "Ġocean": 4496,
      "Ġcamer": 4497,
      "itable": 4498,
      "Ġways": 4499,
      "Ġwanted": 4500,
      "Ġbillion": 4501,
      "Ġbring": 4502,
      "Ġtold": 4503,
      "Ġdog": 4504,
      "Ġlif": 4505,
      "Ġnine": 4506,
      "Ġgreen": 4507,
      "ĠMem": 4508,
      "ĠMars": 4509,
      "Ġwithd": 4510,
      "osen": 4511,
      "ĠLM": 4512,
      "ĠLife": 4513,
      "ĠFre": 4514,
      "Ġexact": 4515,
      "ĠJose": 4516,
      "ĠKar": 4517,
      "Ġcontract": 4518,
      "Ġintended": 4519,
      "ightly": 4520,
      "Ġsyll": 4521,
      "anguages": 4522,
      "Ġ35": 4523,
      "Ġ1996": 4524,
      "Ġsimple": 4525,
      "Ġblock": 4526,
      "anning": 4527,
      "vention": 4528,
      "ĠOrgan": 4529,
      "Ġ80": 4530,
      "Ġapproach": 4531,
      "Ġopposed": 4532,
      "ĠQu": 4533,
      "Ġclaims": 4534,
      "Ġskin": 4535,
      "Ġinitial": 4536,
      "Ġscientists": 4537,
      "Ġfigure": 4538,
      "Ġarticle": 4539,
      "related": 4540,
      "Ġimmediately": 4541,
      "Or": 4542,
      "Sch": 4543,
      "back": 4544,
      "cel": 4545,
      "las": 4546,
      "metic": 4547,
      "such": 4548,
      "where": 4549,
      "Ġtakes": 4550,
      "inate": 4551,
      "Ġpig": 4552,
      "Ġmax": 4553,
      "Ġdro": 4554,
      "Ġhy": 4555,
      "ĠTra": 4556,
      "urs": 4557,
      "oting": 4558,
      "unt": 4559,
      "Ġgiving": 4560,
      "ĠMong": 4561,
      "ĠBro": 4562,
      "ĠBel": 4563,
      "ĠBurg": 4564,
      "Ġstable": 4565,
      "opes": 4566,
      "Ġprote": 4567,
      "ago": 4568,
      "Ġvoc": 4569,
      "acing": 4570,
      "ĠFound": 4571,
      "ocks": 4572,
      "Ġchief": 4573,
      "orders": 4574,
      "Ġprem": 4575,
      "Ġmeant": 4576,
      "Ġfilmm": 4577,
      "Ġ1998": 4578,
      "ahar": 4579,
      "Ġanimated": 4580,
      "Ġexpanded": 4581,
      "Ġmedieval": 4582,
      "Ġcorrect": 4583,
      "Ġadvanced": 4584,
      "Ġsolar": 4585,
      "Ġavoid": 4586,
      "Ġkept": 4587,
      "Ġdevice": 4588,
      "Ġelectrons": 4589,
      "Ġidentified": 4590,
      "ĠFrank": 4591,
      "Ġexception": 4592,
      "Ġtemperatures": 4593,
      "ĠSystem": 4594,
      "Ġapplication": 4595,
      "ĠAsparagales": 4596,
      "ĠNapoleon": 4597,
      "\").": 4598,
      "%,": 4599,
      "63": 4600,
      "App": 4601,
      "It": 4602,
      "tical": 4603,
      "ani": 4604,
      "Ġcand": 4605,
      "Ġcov": 4606,
      "alax": 4607,
      "Ġwin": 4608,
      "Ġpie": 4609,
      "Ġtoward": 4610,
      "leep": 4611,
      "Ġdate": 4612,
      "Ġreach": 4613,
      "ĠSub": 4614,
      "ĠCush": 4615,
      "Ġones": 4616,
      "irm": 4617,
      "thur": 4618,
      "osh": 4619,
      "aved": 4620,
      "abil": 4621,
      "ĠRed": 4622,
      "acity": 4623,
      "ĠFestival": 4624,
      "Ġsec": 4625,
      "ĠUK": 4626,
      "akers": 4627,
      "claim": 4628,
      "izes": 4629,
      "peror": 4630,
      "Ġimage": 4631,
      "Ġroad": 4632,
      "Ġsurren": 4633,
      "Ġdepend": 4634,
      "ĠOrwell": 4635,
      "Ġimportance": 4636,
      "Ġcritics": 4637,
      "ĠWhite": 4638,
      "Ġofficially": 4639,
      "Ġallows": 4640,
      "ĠAustral": 4641,
      "Ġincome": 4642,
      "Ġfunctions": 4643,
      "Ġpredomin": 4644,
      "Ġattempted": 4645,
      "Ġissue": 4646,
      "Ġcolonies": 4647,
      "aught": 4648,
      "embly": 4649,
      "Ġregarded": 4650,
      "Ġawarded": 4651,
      "Ġhonor": 4652,
      "ĠPaul": 4653,
      "Ġpurpose": 4654,
      "Ġinstitutions": 4655,
      "bl": 4656,
      "get": 4657,
      "with": 4658,
      "Ġaid": 4659,
      "Ġcensus": 4660,
      "Ġdiam": 4661,
      "Ġharm": 4662,
      "Ġec": 4663,
      "ĠSil": 4664,
      "amation": 4665,
      "usion": 4666,
      "ĠBen": 4667,
      "ĠBak": 4668,
      "Ġstre": 4669,
      "ifically": 4670,
      "ĠLater": 4671,
      "iance": 4672,
      "ĠNations": 4673,
      "ĠFurther": 4674,
      "ĠKabul": 4675,
      "ansion": 4676,
      "Ġcontent": 4677,
      "ĠUnder": 4678,
      "Ġimages": 4679,
      "Ġcolor": 4680,
      "Ġ1997": 4681,
      "ĠProv": 4682,
      "Ġtelephone": 4683,
      "Ġauthors": 4684,
      "Ġpractices": 4685,
      "Ġargument": 4686,
      "Ġperformance": 4687,
      "Ġbuildings": 4688,
      "Ġassistive": 4689,
      "Ġarrang": 4690,
      "Ġarrived": 4691,
      "Ġsymbols": 4692,
      "Ġmoral": 4693,
      "This": 4694,
      "Ġfigures": 4695,
      "Ġmanufactur": 4696,
      "Ġsubsequent": 4697,
      "Ġultimately": 4698,
      "Ġdiverse": 4699,
      "Ġeggs": 4700,
      "ducation": 4701,
      "ĠAriet": 4702,
      "ĠIllinois": 4703,
      "Ġpronunciation": 4704,
      "500": 4705,
      "Einstein": 4706,
      "Is": 4707,
      "SO": 4708,
      "bur": 4709,
      "gory": 4710,
      "sen": 4711,
      "Ġice": 4712,
      "Ġtri": 4713,
      "atre": 4714,
      "ita": 4715,
      "Ġpair": 4716,
      "ĠSamp": 4717,
      "Ġgrew": 4718,
      "ĠBook": 4719,
      "Ġstone": 4720,
      "Ġconne": 4721,
      "andom": 4722,
      "ĠLu": 4723,
      "ĠGold": 4724,
      "Ġ28": 4725,
      "iaceae": 4726,
      "Ġrural": 4727,
      "ĠAlfred": 4728,
      "cles": 4729,
      "pha": 4730,
      "Ġarms": 4731,
      "Ġshot": 4732,
      "Ġplanned": 4733,
      "Ġadult": 4734,
      "ĠAries": 4735,
      "Ġconserv": 4736,
      "ixes": 4737,
      "Ġrevolution": 4738,
      "Ġconstell": 4739,
      "ĠCollege": 4740,
      "ĠAdd": 4741,
      "Ġallowing": 4742,
      "Ġrespond": 4743,
      "Ġborrow": 4744,
      "Ġpaint": 4745,
      "Ġsubstant": 4746,
      "Eng": 4747,
      "ĠAldrin": 4748,
      "Ġprominent": 4749,
      "Ġhypothesis": 4750,
      "Ġdirection": 4751,
      "cks": 4752,
      "ienced": 4753,
      "ken": 4754,
      "Ġtarg": 4755,
      "itage": 4756,
      "itness": 4757,
      "icon": 4758,
      "Ġphen": 4759,
      "Ġbig": 4760,
      "Ġball": 4761,
      "Ġmom": 4762,
      "lem": 4763,
      "Ġdens": 4764,
      "entially": 4765,
      "olis": 4766,
      "ĠMod": 4767,
      "Ġsty": 4768,
      "agle": 4769,
      "Ġvan": 4770,
      "Ġvast": 4771,
      "illing": 4772,
      "Ġadobe": 4773,
      "ibb": 4774,
      "iban": 4775,
      "Ġens": 4776,
      "Ġproducing": 4777,
      "Ġextended": 4778,
      "Ġcultures": 4779,
      "Ġmovements": 4780,
      "Ġtraditions": 4781,
      "roduction": 4782,
      "Ġpowerful": 4783,
      "Ġshowed": 4784,
      "Ġgoal": 4785,
      "Ġexistence": 4786,
      "Ġfarming": 4787,
      "ĠSwed": 4788,
      "ĠDelph": 4789,
      "Ġprojects": 4790,
      "Ġcreating": 4791,
      "Ġdegree": 4792,
      "Ġeasily": 4793,
      "Ġnucle": 4794,
      "Ġmagazine": 4795,
      "Ġsalamanders": 4796,
      "Ġequivalent": 4797,
      "Ġresistance": 4798,
      "ĠJoseph": 4799,
      "ĠSampras": 4800,
      "%),": 4801,
      "Europe": 4802,
      "ait": 4803,
      "born": 4804,
      "fin": 4805,
      "gart": 4806,
      "jan": 4807,
      "Ġ:": 4808,
      "atur": 4809,
      "Ġsites": 4810,
      "Ġinstr": 4811,
      "Ġfully": 4812,
      "ĠAk": 4813,
      "Ġhot": 4814,
      "Ġnit": 4815,
      "imens": 4816,
      "ulpt": 4817,
      "emen": 4818,
      "ĠHy": 4819,
      "umber": 4820,
      "Ġproport": 4821,
      "ĠEr": 4822,
      "ĠGe": 4823,
      "Ġsuc": 4824,
      "Ġcomment": 4825,
      "ĠDur": 4826,
      "clamation": 4827,
      "phal": 4828,
      "Ġarc": 4829,
      "Ġleaving": 4830,
      "Ġcontext": 4831,
      "orman": 4832,
      "Ġartistic": 4833,
      "Ġworkers": 4834,
      "oint": 4835,
      "Ġinvent": 4836,
      "Ġwealth": 4837,
      "Ġwrite": 4838,
      "Ġboard": 4839,
      "Ġrevol": 4840,
      "Ġlegs": 4841,
      "Ġserve": 4842,
      "Ġsecondary": 4843,
      "Ġ70": 4844,
      "eget": 4845,
      "Ġordered": 4846,
      "bridge": 4847,
      "Ġbelief": 4848,
      "Ġobservations": 4849,
      "Ġrelease": 4850,
      "Ġhelped": 4851,
      "Ġcoastal": 4852,
      "Ġtribes": 4853,
      "Ġoxygen": 4854,
      "Ġambiguity": 4855,
      "Ġstrategy": 4856,
      "Ġaspects": 4857,
      "ampionship": 4858,
      "Ġdeposits": 4859,
      "gress": 4860,
      "rum": 4861,
      "ĠÎ": 4862,
      "Ġtried": 4863,
      "Ġaikido": 4864,
      "erous": 4865,
      "onian": 4866,
      "Ġsun": 4867,
      "isher": 4868,
      "ese": 4869,
      "Ġfr": 4870,
      "Ġface": 4871,
      "Ġfiction": 4872,
      "ctic": 4873,
      "ĠCom": 4874,
      "igration": 4875,
      "ĠBas": 4876,
      "Ġconclud": 4877,
      "ĠHam": 4878,
      "Ġproved": 4879,
      "ods": 4880,
      "agen": 4881,
      "resents": 4882,
      "Ġexc": 4883,
      "ipation": 4884,
      "rug": 4885,
      "ĠStar": 4886,
      "ĠChadic": 4887,
      "Ġinvasion": 4888,
      "Ġ1994": 4889,
      "Ġprovinces": 4890,
      "Ġaddress": 4891,
      "steroids": 4892,
      "ĠAda": 4893,
      "Ġfactor": 4894,
      "Ġreduce": 4895,
      "Ġcurrently": 4896,
      "Ġfailure": 4897,
      "Ġdigital": 4898,
      "Ġmixed": 4899,
      "Ġenvironmental": 4900,
      "Ġnuclear": 4901,
      "ĠDemocratic": 4902,
      "Ġmachine": 4903,
      "Ġfrogs": 4904,
      "ĠRichard": 4905,
      "Ġsoftware": 4906,
      "Ġaardvark": 4907,
      "ĠCushitic": 4908,
      "%)": 4909,
      "Many": 4910,
      "bra": 4911,
      "iary": 4912,
      "ker": 4913,
      "mat": 4914,
      "pr": 4915,
      "tes": 4916,
      "western": 4917,
      "yre": 4918,
      "erc": 4919,
      "erg": 4920,
      "Ġsnow": 4921,
      "Ġcou": 4922,
      "Ġcos": 4923,
      "order": 4924,
      "Ġinsc": 4925,
      "Ġfields": 4926,
      "enty": 4927,
      "ĠTag": 4928,
      "eless": 4929,
      "ĠSaf": 4930,
      "ĠSoutheast": 4931,
      "urt": 4932,
      "adel": 4933,
      "ĠMos": 4934,
      "ĠPeter": 4935,
      "ĠLoyal": 4936,
      "ĠDan": 4937,
      "ĠDis": 4938,
      "Ġnotably": 4939,
      "Ġshape": 4940,
      "Ġplays": 4941,
      "cont": 4942,
      "ronze": 4943,
      "Ġscale": 4944,
      "Ġsubt": 4945,
      "Ġmodified": 4946,
      "Ġindigenous": 4947,
      "Ġraised": 4948,
      "Ġdeveloping": 4949,
      "Ġwriter": 4950,
      "Ġrepresents": 4951,
      "Ġdescribe": 4952,
      "Ġprograms": 4953,
      "Ġindividuals": 4954,
      "Ġcondition": 4955,
      "Ġexperiments": 4956,
      "Ġemployed": 4957,
      "Ġachiev": 4958,
      "Ġcategory": 4959,
      "Ġsubsequently": 4960,
      "Ġthousands": 4961,
      "Ġmouthwash": 4962,
      "ĠKorean": 4963,
      "Ġrisk": 4964,
      "Ġsucceed": 4965,
      ",\"": 4966,
      "26": 4967,
      "64": 4968,
      "90": 4969,
      "One": 4970,
      "War": 4971,
      "eed": 4972,
      "oes": 4973,
      "oor": 4974,
      "wise": 4975,
      "Ġ/": 4976,
      "Ġá": 4977,
      "Ġtiss": 4978,
      "Ġaqu": 4979,
      "Ġactions": 4980,
      "Ġsister": 4981,
      "Ġsought": 4982,
      "isf": 4983,
      "Ġwild": 4984,
      "roph": 4985,
      "Ġmind": 4986,
      "Ġmiddle": 4987,
      "leum": 4988,
      "Ġdark": 4989,
      "ils": 4990,
      "oles": 4991,
      "ĠTreat": 4992,
      "ĠSur": 4993,
      "ivals": 4994,
      "Ġonline": 4995,
      "ĠIm": 4996,
      "tered": 4997,
      "ody": 4998,
      "Ġvon": 4999,
      "ĠWil": 5000,
      "Ġmob": 5001,
      "Ġrich": 5002,
      "Ġunp": 5003,
      "ĠJul": 5004,
      "earing": 5005,
      "ternet": 5006,
      "Ġenj": 5007,
      "Ġ180": 5008,
      "Ind": 5009,
      "Ġforming": 5010,
      "Ġregional": 5011,
      "Ġattention": 5012,
      "theless": 5013,
      "Ġnewsp": 5014,
      "Ġprovides": 5015,
      "Ġbox": 5016,
      "ructure": 5017,
      "Ġcontrolled": 5018,
      "Ġorganized": 5019,
      "Ġmatch": 5020,
      "Ġcharacteristics": 5021,
      "Ġastronomy": 5022,
      "Ġmarried": 5023,
      "ipped": 5024,
      "Ġcomputers": 5025,
      "monton": 5026,
      "board": 5027,
      "ospital": 5028,
      "ĠBooks": 5029,
      "Ġunderstanding": 5030,
      "Ġpressure": 5031,
      "ĠPrize": 5032,
      "Ġdoub": 5033,
      "Ġsexual": 5034,
      "Ġdiscovery": 5035,
      "ĠâĨ": 5036,
      "etroleum": 5037,
      "Early": 5038,
      "Ġstrugg": 5039,
      "21": 5040,
      "Alex": 5041,
      "Arab": 5042,
      "Kh": 5043,
      "Pe": 5044,
      "aper": 5045,
      "eas": 5046,
      "equ": 5047,
      "ns": 5048,
      "pet": 5049,
      "rat": 5050,
      "Ġx": 5051,
      "iner": 5052,
      "inated": 5053,
      "Ġtherm": 5054,
      "edia": 5055,
      "oration": 5056,
      "orks": 5057,
      "orms": 5058,
      "Ġfuel": 5059,
      "Ġpure": 5060,
      "oud": 5061,
      "struction": 5062,
      "omew": 5063,
      "Ġrein": 5064,
      "ĠTime": 5065,
      "iment": 5066,
      "ivation": 5067,
      "ĠColl": 5068,
      "uting": 5069,
      "Ġforward": 5070,
      "ĠMore": 5071,
      "ĠBank": 5072,
      "Ġstation": 5073,
      "oples": 5074,
      "Ġdead": 5075,
      "ĠWater": 5076,
      "ĠFact": 5077,
      "ĠDou": 5078,
      "ĠDay": 5079,
      "ĠDirect": 5080,
      "Ġheart": 5081,
      "Ġusage": 5082,
      "arters": 5083,
      "Ġadvert": 5084,
      "itionally": 5085,
      "Ġsciences": 5086,
      "Ġphr": 5087,
      "Ġformation": 5088,
      "Ġoverall": 5089,
      "ysics": 5090,
      "Ġnewly": 5091,
      "Ġeffort": 5092,
      "Ġslightly": 5093,
      "Ġdifferences": 5094,
      "Ġrefused": 5095,
      "Ġinside": 5096,
      "Ġ2023": 5097,
      "Ġ1930": 5098,
      "ĠBerlin": 5099,
      "Ġliterary": 5100,
      "Ġheavily": 5101,
      "Ġconsisting": 5102,
      "ĠKhan": 5103,
      "Ġfemin": 5104,
      "Ġmaintained": 5105,
      "Ġbecomes": 5106,
      "Ġpositive": 5107,
      "Ġaudience": 5108,
      "Ġsequence": 5109,
      "Ġremoved": 5110,
      "Ġfertil": 5111,
      "Ġacademic": 5112,
      "ĠLeto": 5113,
      "Ġsplit": 5114,
      "Ġliquid": 5115,
      "ĠDepartment": 5116,
      "tymology": 5117,
      "Ġphenomen": 5118,
      "28": 5119,
      "CO": 5120,
      "hire": 5121,
      "log": 5122,
      "zy": 5123,
      "Ã¨": 5124,
      "Ġign": 5125,
      "Ġtet": 5126,
      "ona": 5127,
      "Ġfixed": 5128,
      "olith": 5129,
      "Ġlibert": 5130,
      "ĠSum": 5131,
      "ĠCup": 5132,
      "Ġisol": 5133,
      "otor": 5134,
      "ĠMart": 5135,
      "ĠMobile": 5136,
      "ithmetic": 5137,
      "ĠBost": 5138,
      "Ġconver": 5139,
      "ĠPet": 5140,
      "ĠPak": 5141,
      "ĠEv": 5142,
      "ĠLaw": 5143,
      "ĠRock": 5144,
      "Ġsection": 5145,
      "Ġsecret": 5146,
      "Ġunique": 5147,
      "sec": 5148,
      "ĠAlg": 5149,
      "ĠAncy": 5150,
      "ĠArthur": 5151,
      "erman": 5152,
      "Ġpopulations": 5153,
      "Ġquality": 5154,
      "Ġactually": 5155,
      "ucas": 5156,
      "Ġrevers": 5157,
      "Ġexperienced": 5158,
      "Ġprogress": 5159,
      "Ġadvoc": 5160,
      "rows": 5161,
      "Ġpractical": 5162,
      "Ġideal": 5163,
      "Ġprogramming": 5164,
      "Ġprotect": 5165,
      "Ġstrongly": 5166,
      "Ġnovels": 5167,
      "ĠAllah": 5168,
      "attles": 5169,
      "ĠFranc": 5170,
      "ĠPeople": 5171,
      "Ġnegative": 5172,
      "Ġincreasingly": 5173,
      "Ġsquare": 5174,
      "Ġconnected": 5175,
      "Ġresponsible": 5176,
      "ĠStudies": 5177,
      "igrants": 5178,
      "Ġmentioned": 5179,
      "ĠTaliban": 5180,
      "ĠâĢł": 5181,
      "Ġextremely": 5182,
      "Ġcandid": 5183,
      "Ġstyles": 5184,
      "ibbean": 5185,
      "65": 5186,
      "aily": 5187,
      "can": 5188,
      "from": 5189,
      "fall": 5190,
      "hat": 5191,
      "mark": 5192,
      "ped": 5193,
      "ture": 5194,
      "water": 5195,
      "zil": 5196,
      "Ġaer": 5197,
      "aria": 5198,
      "Ġfought": 5199,
      "iced": 5200,
      "Ġbal": 5201,
      "ĠCorn": 5202,
      "uts": 5203,
      "ĠMu": 5204,
      "ership": 5205,
      "ĠHor": 5206,
      "ĠHel": 5207,
      "ĠHow": 5208,
      "ĠLake": 5209,
      "ĠNic": 5210,
      "ĠFore": 5211,
      "Ġrates": 5212,
      "ĠOm": 5213,
      "ips": 5214,
      "rupt": 5215,
      "reek": 5216,
      "Ġperman": 5217,
      "Ġrough": 5218,
      "Ġaccomp": 5219,
      "Ġrace": 5220,
      "Ġcolumn": 5221,
      "cession": 5222,
      "ĠLeg": 5223,
      "ĠIslands": 5224,
      "Ġpolitics": 5225,
      "Ġreference": 5226,
      "Ġoperating": 5227,
      "Ġopport": 5228,
      "Ġpurch": 5229,
      "Ġdrive": 5230,
      "Ġlowest": 5231,
      "Ġinstance": 5232,
      "Ġcrim": 5233,
      "Ġexperimental": 5234,
      "Ġarchae": 5235,
      "Ġpronounced": 5236,
      "Ġessay": 5237,
      "Ġessential": 5238,
      "Ġconcerned": 5239,
      "Philos": 5240,
      "Ġmorph": 5241,
      "Ġarticles": 5242,
      "Ġindicate": 5243,
      "ĠANOVA": 5244,
      "slan": 5245,
      "ĠMacedonian": 5246,
      "Ġrobot": 5247,
      "Ġfrequently": 5248,
      "Ġcircum": 5249,
      "Ġrubidium": 5250,
      "Ġneutral": 5251,
      "ĠMichael": 5252,
      "'.": 5253,
      "TC": 5254,
      "bre": 5255,
      "dis": 5256,
      "mad": 5257,
      "ping": 5258,
      "sw": 5259,
      "Ġtren": 5260,
      "heastern": 5261,
      "inity": 5262,
      "including": 5263,
      "onom": 5264,
      "Ġfelt": 5265,
      "Ġmort": 5266,
      "Ġdates": 5267,
      "Ġlat": 5268,
      "ĠSen": 5269,
      "ambigu": 5270,
      "ĠCer": 5271,
      "igital": 5272,
      "Ġgalax": 5273,
      "ĠMes": 5274,
      "ĠMont": 5275,
      "ĠIl": 5276,
      "Ġexists": 5277,
      "ĠOx": 5278,
      "Ġadm": 5279,
      "Ġspring": 5280,
      "ĠThus": 5281,
      "ords": 5282,
      "Ġroot": 5283,
      "issance": 5284,
      "olloqu": 5285,
      "velopment": 5286,
      "Ġquarter": 5287,
      "Ġweap": 5288,
      "Ġdistrict": 5289,
      "Ġfollows": 5290,
      "ĠIndepend": 5291,
      "Ang": 5292,
      "Animal": 5293,
      "Ġspecifically": 5294,
      "Ġtechnical": 5295,
      "Although": 5296,
      "Ġorganic": 5297,
      "Ġinfluential": 5298,
      "Ġengines": 5299,
      "Ġgranted": 5300,
      "Ġradiation": 5301,
      "ĠCaribbean": 5302,
      "Ġphysics": 5303,
      "Ġversions": 5304,
      "Ġissued": 5305,
      "Ġtaxes": 5306,
      "Ġprinciples": 5307,
      "Ġabsor": 5308,
      "Ġsitu": 5309,
      "Ġdomestic": 5310,
      "Ġfreedom": 5311,
      "Ġhouses": 5312,
      "ĠMexico": 5313,
      "ĠCarolina": 5314,
      "Ġcategories": 5315,
      "ĠBoston": 5316,
      "All": 5317,
      "De": 5318,
      "hi": 5319,
      "hre": 5320,
      "lers": 5321,
      "mosp": 5322,
      "Ġaest": 5323,
      "atically": 5324,
      "Ġwalk": 5325,
      "Ġwinning": 5326,
      "Ġdry": 5327,
      "olk": 5328,
      "ĠTod": 5329,
      "elig": 5330,
      "Ġnob": 5331,
      "ĠSpe": 5332,
      "etts": 5333,
      "ette": 5334,
      "idae": 5335,
      "chorage": 5336,
      "ĠCab": 5337,
      "ĠCatal": 5338,
      "utation": 5339,
      "Ġgained": 5340,
      "raf": 5341,
      "ĠMilitary": 5342,
      "ĠIr": 5343,
      "Ġstream": 5344,
      "thing": 5345,
      "ĠPost": 5346,
      "iful": 5347,
      "Ġdeal": 5348,
      "ĠLate": 5349,
      "Ġvirt": 5350,
      "ĠRog": 5351,
      "ĠNative": 5352,
      "Ġrandom": 5353,
      "ĠUr": 5354,
      "class": 5355,
      "ĠKor": 5356,
      "ĠKant": 5357,
      "ructions": 5358,
      "aped": 5359,
      "ĠArslan": 5360,
      "Ġcommander": 5361,
      "Ġneur": 5362,
      "Ġempire": 5363,
      "Ġflat": 5364,
      "Ġcolle": 5365,
      "Ġactual": 5366,
      "Ġvariable": 5367,
      "Ġwritings": 5368,
      "Ġextra": 5369,
      "Ġdifference": 5370,
      "Ġsimply": 5371,
      "Ġexpansion": 5372,
      "Ġmedium": 5373,
      "Ġdepending": 5374,
      "ĠJohnson": 5375,
      "Ġmonth": 5376,
      "Ġrequires": 5377,
      "ĠConfederation": 5378,
      "riculture": 5379,
      "ĠAustin": 5380,
      "Ġargues": 5381,
      "Ġsuggests": 5382,
      "Ġcollabor": 5383,
      "Ġtranslated": 5384,
      "Ġmaintain": 5385,
      "Ġsettled": 5386,
      "Ġconducted": 5387,
      "Ġdistinguish": 5388,
      "Ġmedicine": 5389,
      "achusetts": 5390,
      "75": 5391,
      "78": 5392,
      "AA": 5393,
      "Comp": 5394,
      "nce": 5395,
      "Ã³": 5396,
      "Ġtaught": 5397,
      "enic": 5398,
      "Ġcars": 5399,
      "also": 5400,
      "orus": 5401,
      "Ġfru": 5402,
      "roid": 5403,
      "Ġnerv": 5404,
      "ĠServ": 5405,
      "uration": 5406,
      "ivest": 5407,
      "oto": 5408,
      "Ġalcoh": 5409,
      "ĠPre": 5410,
      "ĠHellen": 5411,
      "Ġproton": 5412,
      "Ġveget": 5413,
      "Ġcomes": 5414,
      "ĠFollowing": 5415,
      "Ġexchange": 5416,
      "see": 5417,
      "Ġchain": 5418,
      "Ġarithmetic": 5419,
      "Ġlex": 5420,
      "Ġcomposition": 5421,
      "ologist": 5422,
      "Ġimag": 5423,
      "Ġperhaps": 5424,
      "Ġdispl": 5425,
      "Ġspeed": 5426,
      "Ġround": 5427,
      "tebr": 5428,
      "Ġproducer": 5429,
      "ĠSever": 5430,
      "Ġprime": 5431,
      "aecil": 5432,
      "ropri": 5433,
      "Ġflow": 5434,
      "Ġpoly": 5435,
      "Ġgovernor": 5436,
      "Ġexped": 5437,
      "Ġcontinental": 5438,
      "ĠLeague": 5439,
      "Ġclassified": 5440,
      "ennium": 5441,
      "Ġtypical": 5442,
      "Ġrepresenting": 5443,
      "Ġsolid": 5444,
      "Ġsomething": 5445,
      "Ġanarchists": 5446,
      "Ġstarting": 5447,
      "Ġcombination": 5448,
      "Ġ1940": 5449,
      "ethyl": 5450,
      "ĠEdmonton": 5451,
      "Ġfarmers": 5452,
      "Ġexpressed": 5453,
      "Ġexpression": 5454,
      "ĠDavis": 5455,
      "Ġconcerns": 5456,
      "ĠPeace": 5457,
      "Ġunderstood": 5458,
      "Ġlogic": 5459,
      "Ġconsonant": 5460,
      "Ġapplications": 5461,
      "Ġadministration": 5462,
      "Ġconventional": 5463,
      "ancipation": 5464,
      "Amsterdam": 5465,
      "ĠJews": 5466,
      "Ġsaying": 5467,
      "ĠSmith": 5468,
      "Ġchallen": 5469,
      "Ġsettlement": 5470,
      "ĠTechnology": 5471,
      "Ġsurrounding": 5472,
      "Ġnouns": 5473,
      "Ġalternative": 5474,
      "Ġtarget": 5475,
      "European": 5476,
      "ĠTaggart": 5477,
      "35": 5478,
      "Ad": 5479,
      "Since": 5480,
      "eign": 5481,
      "iate": 5482,
      "non": 5483,
      "Ġiron": 5484,
      "Ġsomew": 5485,
      "Ġcited": 5486,
      "orter": 5487,
      "Ġfrag": 5488,
      "icit": 5489,
      "Ġpath": 5490,
      "Ġmut": 5491,
      "ilk": 5492,
      "ĠTim": 5493,
      "ĠSat": 5494,
      "amental": 5495,
      "ceived": 5496,
      "rach": 5497,
      "racy": 5498,
      "raham": 5499,
      "Ġonto": 5500,
      "isted": 5501,
      "ĠMark": 5502,
      "ĠBab": 5503,
      "iana": 5504,
      "resh": 5505,
      "Ġatmosp": 5506,
      "Ġhere": 5507,
      "ĠOut": 5508,
      "Ġusers": 5509,
      "ewis": 5510,
      "ĠAnchorage": 5511,
      "allic": 5512,
      "Ġarmed": 5513,
      "Ġleave": 5514,
      "Ġshif": 5515,
      "Ġintellig": 5516,
      "ĠStat": 5517,
      "ignment": 5518,
      "Ġteeth": 5519,
      "ĠThat": 5520,
      "enshire": 5521,
      "Ġmodule": 5522,
      "Ġstudio": 5523,
      "Ġrepublic": 5524,
      "Ġcooper": 5525,
      "Ġsupply": 5526,
      "Ġsimpl": 5527,
      "Ġ1975": 5528,
      "Ġeffectively": 5529,
      "riptions": 5530,
      "Ġadvance": 5531,
      "Ġreceive": 5532,
      "Ġheadqu": 5533,
      "Ġgoing": 5534,
      "ĠParliament": 5535,
      "Ġcausing": 5536,
      "deenshire": 5537,
      "Ġelse": 5538,
      "Ġmeasures": 5539,
      "Ġgoods": 5540,
      "Ġimprove": 5541,
      "Ġcontributed": 5542,
      "Ġemerged": 5543,
      "Ġassumed": 5544,
      "Ġfootball": 5545,
      "While": 5546,
      "ĠMassachusetts": 5547,
      "Ġrivalry": 5548,
      "Ġcinema": 5549,
      "ĠGeorgia": 5550,
      "Ġspiritual": 5551,
      "Ġpaintings": 5552,
      "Ġenjoy": 5553,
      "ĠPakistan": 5554,
      "ĠAncyra": 5555,
      "43": 5556,
      "Audi": 5557,
      "EC": 5558,
      "GC": 5559,
      "Joh": 5560,
      "Sp": 5561,
      "house": 5562,
      "life": 5563,
      "wagen": 5564,
      "Ġap": 5565,
      "hex": 5566,
      "ini": 5567,
      "Ġovers": 5568,
      "atively": 5569,
      "Ġcast": 5570,
      "Ġwant": 5571,
      "Ġfet": 5572,
      "Ġlives": 5573,
      "Ġnort": 5574,
      "Ġbeads": 5575,
      "Ġalone": 5576,
      "ĠPan": 5577,
      "osite": 5578,
      "opl": 5579,
      "avel": 5580,
      "Ġdeleg": 5581,
      "ĠLov": 5582,
      "ĠGalt": 5583,
      "Ġitems": 5584,
      "ĠRad": 5585,
      "ĠNor": 5586,
      "Ġheat": 5587,
      "Ġhearing": 5588,
      "Ġsearch": 5589,
      "Ġunable": 5590,
      "Ġcontained": 5591,
      "overeign": 5592,
      "ĠViet": 5593,
      "Ġsculpt": 5594,
      "Ġrecip": 5595,
      "Ġpeak": 5596,
      "Ġpeoples": 5597,
      "Ġacting": 5598,
      "Ġmanagement": 5599,
      "Ġfeel": 5600,
      "Ġparticles": 5601,
      "aneous": 5602,
      "Ġorganizations": 5603,
      "ĠSciences": 5604,
      "Ġ90": 5605,
      "Ġopposition": 5606,
      "Ġportray": 5607,
      "Ġencoura": 5608,
      "Ġattempts": 5609,
      "Ġsatell": 5610,
      "Ġconcepts": 5611,
      "ĠTrojan": 5612,
      "Ġconquest": 5613,
      "Ġtraditionally": 5614,
      "ĠHighway": 5615,
      "Ġviolence": 5616,
      "Ġchloride": 5617,
      "ĠCambridge": 5618,
      "Ġstrength": 5619,
      "ĠOscar": 5620,
      "Ġagreement": 5621,
      "Ġcamera": 5622,
      "burgh": 5623,
      "ivestock": 5624,
      "ĠSeveral": 5625,
      "70": 5626,
      "Arist": 5627,
      "bes": 5628,
      "band": 5629,
      "mond": 5630,
      "rations": 5631,
      "ucl": 5632,
      "uild": 5633,
      "wing": 5634,
      "heel": 5635,
      "inet": 5636,
      "Ġora": 5637,
      "Ġsovereign": 5638,
      "itud": 5639,
      "Ġwaters": 5640,
      "icism": 5641,
      "ĠAstron": 5642,
      "Ġmaster": 5643,
      "Ġhands": 5644,
      "sted": 5645,
      "struct": 5646,
      "olute": 5647,
      "Ġrepe": 5648,
      "Ġlaid": 5649,
      "ĠSar": 5650,
      "ĠSid": 5651,
      "ethe": 5652,
      "amily": 5653,
      "otel": 5654,
      "otton": 5655,
      "Ġgram": 5656,
      "iring": 5657,
      "emis": 5658,
      "Ġpros": 5659,
      "Ġsup": 5660,
      "ĠForm": 5661,
      "ĠDi": 5662,
      "ĠDiv": 5663,
      "ĠOf": 5664,
      "ĠJeff": 5665,
      "ĠAnn": 5666,
      "upiter": 5667,
      "Ġshall": 5668,
      "ĠStudi": 5669,
      "uble": 5670,
      "Ġsports": 5671,
      "Ġevolved": 5672,
      "ĠAtari": 5673,
      "Ġrecently": 5674,
      "Ġinvented": 5675,
      "Ġtheme": 5676,
      "Ġflag": 5677,
      "Ġcollected": 5678,
      "ĠAlexand": 5679,
      "Ġextensive": 5680,
      "ĠIndo": 5681,
      "Ġ1985": 5682,
      "Ġ1986": 5683,
      "type": 5684,
      "ĠNorthwest": 5685,
      "Ġdescription": 5686,
      "Ġconstant": 5687,
      "Ġ1863": 5688,
      "Ġoriginated": 5689,
      "Ġprocesses": 5690,
      "idden": 5691,
      "ĠAbraham": 5692,
      "cules": 5693,
      "Ġruling": 5694,
      "Ġrelativity": 5695,
      "ĠiP": 5696,
      "Ġprincipal": 5697,
      "Ġrunning": 5698,
      "Ġdocuments": 5699,
      "ĠPortugal": 5700,
      "Ġcouncil": 5701,
      "Ġdominated": 5702,
      "Ġsituation": 5703,
      "Ġpositions": 5704,
      "Ġconvention": 5705,
      "Ġmathematical": 5706,
      "Ġdynasty": 5707,
      "ĠANSI": 5708,
      "Ġpregnancy": 5709,
      "Ġphonem": 5710,
      "Ġcommunication": 5711,
      "Ġfifth": 5712,
      "ĠProtest": 5713,
      "Ġcriminal": 5714,
      "29": 5715,
      "AN": 5716,
      "IS": 5717,
      "produ": 5718,
      "uit": 5719,
      "ycl": 5720,
      "Ġut": 5721,
      "Ġtons": 5722,
      "inally": 5723,
      "Ġsample": 5724,
      "Ġwound": 5725,
      "Ġpen": 5726,
      "Ġpaid": 5727,
      "Ġband": 5728,
      "Ġbud": 5729,
      "ione": 5730,
      "ashes": 5731,
      "Ġhun": 5732,
      "Ġhier": 5733,
      "iled": 5734,
      "idav": 5735,
      "add": 5736,
      "rawn": 5737,
      "irmed": 5738,
      "Ġstra": 5739,
      "Ġstabil": 5740,
      "ĠPop": 5741,
      "Ġselected": 5742,
      "iller": 5743,
      "ĠJupiter": 5744,
      "ĠAlso": 5745,
      "Ġabund": 5746,
      "ibli": 5747,
      "ĠChampionship": 5748,
      "Ġroute": 5749,
      "Ġamb": 5750,
      "Ġdescent": 5751,
      "Ġoverl": 5752,
      "crete": 5753,
      "ictures": 5754,
      "Ġqual": 5755,
      "Ġinterests": 5756,
      "Ġcool": 5757,
      "Ġextent": 5758,
      "Ġenter": 5759,
      "ompass": 5760,
      "Ġoccasion": 5761,
      "Ġ1979": 5762,
      "ylogen": 5763,
      "Ġpersonnel": 5764,
      "Ġcharacterized": 5765,
      "Ġapproved": 5766,
      "Ġpopularity": 5767,
      "ĠPlato": 5768,
      "Ġauthorities": 5769,
      "Ġintroduction": 5770,
      "Ġneeds": 5771,
      "Ġsufficient": 5772,
      "ĠiPh": 5773,
      "Ġcrude": 5774,
      "rastructure": 5775,
      "Ġconsistent": 5776,
      "Ġimprov": 5777,
      "Ġcampaigns": 5778,
      "Ġdialect": 5779,
      "Ġcourse": 5780,
      "Ġentirely": 5781,
      "ĠRevolutionary": 5782,
      "ĠVolks": 5783,
      "ĠSuper": 5784,
      "ĠJewish": 5785,
      "Ġcomparison": 5786,
      "Ġconstructed": 5787,
      "ĠBrazil": 5788,
      "Ġjournal": 5789,
      "ĠControl": 5790,
      "Ġinterpretation": 5791,
      "English": 5792,
      "Ġmoment": 5793,
      "ĠTreaty": 5794,
      "Alexander": 5795,
      "AR": 5796,
      "Languages": 5797,
      "gen": 5798,
      "hold": 5799,
      "iable": 5800,
      "jug": 5801,
      "ni": 5802,
      "pread": 5803,
      "right": 5804,
      "vard": 5805,
      "Ġ\\": 5806,
      "Ġtur": 5807,
      "Ġtree": 5808,
      "Ġtens": 5809,
      "onomy": 5810,
      "rees": 5811,
      "Ġsell": 5812,
      "Ġcat": 5813,
      "Ġcel": 5814,
      "Ġfram": 5815,
      "Ġpal": 5816,
      "Ġpetroleum": 5817,
      "Ġborders": 5818,
      "asp": 5819,
      "state": 5820,
      "ĠSk": 5821,
      "ĠSo": 5822,
      "ĠSher": 5823,
      "ota": 5824,
      "Ġalle": 5825,
      "ĠBur": 5826,
      "ĠPeninsula": 5827,
      "opic": 5828,
      "ĠLand": 5829,
      "acu": 5830,
      "ĠFeder": 5831,
      "Ġ1920": 5832,
      "ĠInternet": 5833,
      "ĠOff": 5834,
      "ĠUp": 5835,
      "Ġunc": 5836,
      "ella": 5837,
      "ĠAnarch": 5838,
      "Ġcho": 5839,
      "phia": 5840,
      "ĠKa": 5841,
      "Ġlect": 5842,
      "Ġplans": 5843,
      "cons": 5844,
      "rone": 5845,
      "Ġrelation": 5846,
      "Ġroots": 5847,
      "Ġrecover": 5848,
      "Ġartific": 5849,
      "athan": 5850,
      "Ġprison": 5851,
      "Ġsetting": 5852,
      "Ġinterview": 5853,
      "Ġpolice": 5854,
      "Ġgeneration": 5855,
      "Ġ500": 5856,
      "ĠZF": 5857,
      "ĠDevelopment": 5858,
      "Ġblue": 5859,
      "Ġcontinues": 5860,
      "ĠPho": 5861,
      "Ġ1989": 5862,
      "Ġstatement": 5863,
      "Ġplayer": 5864,
      "onym": 5865,
      "Ġgreatly": 5866,
      "Ġaffected": 5867,
      "Ġrestrict": 5868,
      "Ġappeals": 5869,
      "Ġparalle": 5870,
      "ĠRepublicans": 5871,
      "Ġviewed": 5872,
      "Ġencompass": 5873,
      "ĠAnatolian": 5874,
      "while": 5875,
      "Ġnegot": 5876,
      "mediate": 5877,
      "Ġdebate": 5878,
      "Ġreviews": 5879,
      "restrial": 5880,
      "Ġcorresponding": 5881,
      "Ġoccupied": 5882,
      "Ġtowns": 5883,
      "Ġdocumentary": 5884,
      "Ġmeeting": 5885,
      "Ġdouble": 5886,
      "Ġemphasis": 5887,
      "Ġfrancium": 5888,
      "ĠRomans": 5889,
      "Ġprotection": 5890,
      "Ġconstellation": 5891,
      "Ġaquatic": 5892,
      "People": 5893,
      "100": 5894,
      "48": 5895,
      "Aust": 5896,
      "Lincoln": 5897,
      "Pro": 5898,
      "after": 5899,
      "cers": 5900,
      "nam": 5901,
      "rd": 5902,
      "vis": 5903,
      "za": 5904,
      "Ġ)": 5905,
      "Ġsulf": 5906,
      "Ġsoul": 5907,
      "Ġcru": 5908,
      "Ġcogn": 5909,
      "itarian": 5910,
      "Ġwides": 5911,
      "Ġfoss": 5912,
      "ici": 5913,
      "icial": 5914,
      "ĠAster": 5915,
      "roc": 5916,
      "Ġdut": 5917,
      "olid": 5918,
      "Ġnor": 5919,
      "Ġnetwork": 5920,
      "amin": 5921,
      "ady": 5922,
      "rael": 5923,
      "istical": 5924,
      "Ġstret": 5925,
      "Ġstaff": 5926,
      "ĠProp": 5927,
      "ĠHa": 5928,
      "ĠHung": 5929,
      "ophers": 5930,
      "Ġproof": 5931,
      "Ġoral": 5932,
      "ĠLy": 5933,
      "ĠLewis": 5934,
      "ĠRome": 5935,
      "ĠRob": 5936,
      "ĠFair": 5937,
      "ĠFlor": 5938,
      "Ġexternal": 5939,
      "ĠDr": 5940,
      "Ġuncle": 5941,
      "Ġunknown": 5942,
      "ellion": 5943,
      "ĠAnthrop": 5944,
      "asters": 5945,
      "Ġshoot": 5946,
      "Ġintent": 5947,
      "Ġplat": 5948,
      "Ġadvent": 5949,
      "Ġresidents": 5950,
      "ĠVari": 5951,
      "Ġdesert": 5952,
      "ĠAthens": 5953,
      "Ġattested": 5954,
      "ĠSecret": 5955,
      "Ġquite": 5956,
      "Ġthemes": 5957,
      "Ġextreme": 5958,
      "cycl": 5959,
      "Ġtechnologies": 5960,
      "Ġcontinent": 5961,
      "Ġ1984": 5962,
      "Ġ1973": 5963,
      "Ġlands": 5964,
      "conomic": 5965,
      "Albert": 5966,
      "Ġ...": 5967,
      "Ġnearby": 5968,
      "Ġ1860": 5969,
      "Ġmemory": 5970,
      "Ġexplo": 5971,
      "Ġadvant": 5972,
      "Ġbelieve": 5973,
      "ĠAbd": 5974,
      "Ġencoun": 5975,
      "Ġinvolves": 5976,
      "ĠAndorran": 5977,
      "ĠBrig": 5978,
      "Ġseparated": 5979,
      "Ġgenetic": 5980,
      "ĠPhiladel": 5981,
      "Ġaccounts": 5982,
      "Ġadopt": 5983,
      "years": 5984,
      "Ġholds": 5985,
      "Ġmixture": 5986,
      "Ġadaptation": 5987,
      "Ġconcentration": 5988,
      "Ġmanufacturing": 5989,
      "Ġuniversities": 5990,
      "Ġquantum": 5991,
      "Ġdiseases": 5992,
      "Ġangle": 5993,
      "Ġarmies": 5994,
      "Ġsocieties": 5995,
      "uscript": 5996,
      "ĠMaryland": 5997,
      "largest": 5998,
      "ĠLouis": 5999,
      "Ġintellectual": 6000,
      "Ġattributed": 6001,
      "Schopenhauer": 6002,
      "ĠFoundation": 6003,
      "claimed": 6004,
      "ĠArietis": 6005,
      "Jap": 6006,
      "auc": 6007,
      "brew": 6008,
      "iro": 6009,
      "iography": 6010,
      "ĊĠĊĠĊ": 6011,
      "Ġtact": 6012,
      "hered": 6013,
      "Ġsleep": 6014,
      "Ġcab": 6015,
      "Ġpil": 6016,
      "Ġbad": 6017,
      "ĠAki": 6018,
      "Ġhop": 6019,
      "stra": 6020,
      "Ġlift": 6021,
      "ĠCre": 6022,
      "ĠCop": 6023,
      "irl": 6024,
      "ersh": 6025,
      "ĠBah": 6026,
      "ĠPto": 6027,
      "ĠPyth": 6028,
      "ĠHomer": 6029,
      "osa": 6030,
      "opter": 6031,
      "ĠEach": 6032,
      "Ġvoice": 6033,
      "Ġvote": 6034,
      "Ġexclus": 6035,
      "ĠDigital": 6036,
      "ortion": 6037,
      "Ġrivers": 6038,
      "eward": 6039,
      "Ġotherwise": 6040,
      "Ġappropri": 6041,
      "ĠArg": 6042,
      "ĠArts": 6043,
      "rence": 6044,
      "Ġteaching": 6045,
      "Ġrelative": 6046,
      "Ġ31": 6047,
      "ĠAthen": 6048,
      "Ġmoder": 6049,
      "Ġprin": 6050,
      "Ġoutput": 6051,
      "ropical": 6052,
      "Ġacts": 6053,
      "Ġ1992": 6054,
      "ĠRearden": 6055,
      "Ġ1967": 6056,
      "ĠProdu": 6057,
      "Ġdepicted": 6058,
      "Ġ1982": 6059,
      "Ġ1976": 6060,
      "Ġ1977": 6061,
      "Ġsuccessor": 6062,
      "Ġ1865": 6063,
      "Ġvisible": 6064,
      "Ġdescribes": 6065,
      "Ġoppon": 6066,
      "Ġlinear": 6067,
      "Ġhistorically": 6068,
      "Ġtitles": 6069,
      "mingham": 6070,
      "Ġsumm": 6071,
      "Ġpresidential": 6072,
      "Ġtwice": 6073,
      "ĠCharl": 6074,
      "Ġabsolute": 6075,
      "ĠTroy": 6076,
      "Ġcriticism": 6077,
      "Ġkingdom": 6078,
      "Ġhydrocar": 6079,
      "Ġsubstance": 6080,
      "Ġtreated": 6081,
      "Ġfeatured": 6082,
      "ĠMoroc": 6083,
      "Ġmolecules": 6084,
      "Ġconstitutional": 6085,
      "Ġneighbour": 6086,
      "Agassi": 6087,
      "Ġdefendant": 6088,
      "Ġacquired": 6089,
      "Ġinhabit": 6090,
      "ĠSelj": 6091,
      "Ġvehicles": 6092,
      "Ġwinners": 6093,
      "ĠBurgess": 6094,
      "Warhol": 6095,
      "Ġsomewhat": 6096,
      "ĠVolkswagen": 6097,
      "Ġwidespread": 6098,
      "99": 6099,
      "AS": 6100,
      "Des": 6101,
      "graph": 6102,
      "xide": 6103,
      "yan": 6104,
      "Å«": 6105,
      "Ġapart": 6106,
      "inction": 6107,
      "Ġtheories": 6108,
      "rey": 6109,
      "Ġcle": 6110,
      "Ġcry": 6111,
      "oral": 6112,
      "Ġfit": 6113,
      "Ġbul": 6114,
      "ĠAh": 6115,
      "Ġmart": 6116,
      "Ġdaily": 6117,
      "ouri": 6118,
      "Ġreactions": 6119,
      "cts": 6120,
      "etime": 6121,
      "ado": 6122,
      "Ġgar": 6123,
      "rait": 6124,
      "ĠMel": 6125,
      "ĠBal": 6126,
      "ĠBor": 6127,
      "Ġconstitute": 6128,
      "Ġconvers": 6129,
      "Ġorg": 6130,
      "ĠGDP": 6131,
      "ĠNear": 6132,
      "ĠDue": 6133,
      "Ġselect": 6134,
      "Ġseems": 6135,
      "Ġsecurity": 6136,
      "Ġsecession": 6137,
      "seud": 6138,
      "ellow": 6139,
      "Ġchose": 6140,
      "ĠKe": 6141,
      "Ġnotion": 6142,
      "apes": 6143,
      "Ġparties": 6144,
      "ĠHealth": 6145,
      "ĠHebrew": 6146,
      "Ġroom": 6147,
      "ampion": 6148,
      "Ġ39": 6149,
      "incial": 6150,
      "Ġaccur": 6151,
      "ĠAmong": 6152,
      "uck": 6153,
      "Ġtransform": 6154,
      "Ġcoal": 6155,
      "Ġending": 6156,
      "Ġ1961": 6157,
      "ographs": 6158,
      "Ġ1987": 6159,
      "ĠAges": 6160,
      "ĠForces": 6161,
      "Ġmonoc": 6162,
      "Ġclasses": 6163,
      "Ġperiodic": 6164,
      "Ġtemples": 6165,
      "Ġcorpor": 6166,
      "Ġplayers": 6167,
      "ricultural": 6168,
      "Ġannually": 6169,
      "Ġfactory": 6170,
      "Ġalongside": 6171,
      "Ġaffect": 6172,
      "Ġmarriage": 6173,
      "Ġports": 6174,
      "Ġportion": 6175,
      "ĠQue": 6176,
      "Ġhistorian": 6177,
      "Ġmasses": 6178,
      "Ġreducing": 6179,
      "Ġcivilization": 6180,
      "Ġbright": 6181,
      "Ġvolume": 6182,
      "Ġestimates": 6183,
      "ĠSwift": 6184,
      "Ġscreenwrit": 6185,
      "Ġimproved": 6186,
      "Ġrelationships": 6187,
      "Ġadapted": 6188,
      "Ġconcentrated": 6189,
      "Ġpowered": 6190,
      "Ġtrees": 6191,
      "Ġlayer": 6192,
      "Ġsettlers": 6193,
      "ĠHuns": 6194,
      "Ġcycl": 6195,
      "Ġorbits": 6196,
      "Ġrevenue": 6197,
      "ĠArmenian": 6198,
      "ographer": 6199,
      "Ġrapidly": 6200,
      "ĠBirmingham": 6201,
      "ĠDelphi": 6202,
      "Ġframe": 6203,
      "Ġsucceeded": 6204,
      "ĠIndependence": 6205,
      "aecilians": 6206,
      "John": 6207,
      "ĠPhiladelphia": 6208,
      "ershwin": 6209,
      "47": 6210,
      "Be": 6211,
      "Brit": 6212,
      "Sc": 6213,
      "aÃ§": 6214,
      "col": 6215,
      "den": 6216,
      "group": 6217,
      "miss": 6218,
      "oons": 6219,
      "pired": 6220,
      "rus": 6221,
      "Ã¤": 6222,
      "Ä«": 6223,
      "ĊĠĠ": 6224,
      "inus": 6225,
      "Ġcold": 6226,
      "Ġcris": 6227,
      "alo": 6228,
      "Ġinse": 6229,
      "Ġfaced": 6230,
      "Ġpack": 6231,
      "Ġbrain": 6232,
      "ĠAFI": 6233,
      "Ġment": 6234,
      "Ġmissions": 6235,
      "Ġtomb": 6236,
      "Ġdream": 6237,
      "Ġhair": 6238,
      "stract": 6239,
      "Ġliber": 6240,
      "ĠTun": 6241,
      "eler": 6242,
      "Ġnut": 6243,
      "lyph": 6244,
      "ĠCrit": 6245,
      "Ġ(,": 6246,
      "Ġfort": 6247,
      "unte": 6248,
      "ĠBorman": 6249,
      "ĠHall": 6250,
      "ĠEp": 6251,
      "agon": 6252,
      "Ġdeaf": 6253,
      "ĠGer": 6254,
      "ĠGal": 6255,
      "abled": 6256,
      "ounder": 6257,
      "ĠFe": 6258,
      "ĠOd": 6259,
      "ĠJud": 6260,
      "aste": 6261,
      "ĠKn": 6262,
      "ishing": 6263,
      "Ġkings": 6264,
      "apter": 6265,
      "Ġclub": 6266,
      "Ġperf": 6267,
      "Ġpartn": 6268,
      "Ġcommission": 6269,
      "Ġagree": 6270,
      "Ġneither": 6271,
      "ikh": 6272,
      "Ġroy": 6273,
      "Ġprepar": 6274,
      "Ġcounties": 6275,
      "Ġaccused": 6276,
      "Ġinfrastructure": 6277,
      "ockwork": 6278,
      "Ġ1993": 6279,
      "Ġtransfer": 6280,
      "Ġmanner": 6281,
      "Ġsupplies": 6282,
      "Ġbelt": 6283,
      "Ġserves": 6284,
      "fully": 6285,
      "Altaic": 6286,
      "Ġmusical": 6287,
      "Ġstatistics": 6288,
      "Ġrepresentation": 6289,
      "Ġoperation": 6290,
      "Ġsolutions": 6291,
      "Ġpoem": 6292,
      "Ġpoison": 6293,
      "rising": 6294,
      "Ġparad": 6295,
      "ungusic": 6296,
      "Ġdecline": 6297,
      "Ġpromote": 6298,
      "Ġplanets": 6299,
      "Ġsalts": 6300,
      "ymn": 6301,
      "Ġcapture": 6302,
      "Ġcloser": 6303,
      "Ġtwenty": 6304,
      "Ġattacked": 6305,
      "Ġchemistry": 6306,
      "Ġfundamental": 6307,
      "Ġfocused": 6308,
      "Ġtourism": 6309,
      "ĠCoast": 6310,
      "Ġexecutive": 6311,
      "Ġsubsid": 6312,
      "ĠMcC": 6313,
      "Ġdemonstrated": 6314,
      "Ġnormally": 6315,
      "ĠTerrit": 6316,
      "Ġmilitia": 6317,
      "Ġinnov": 6318,
      "ĠProvince": 6319,
      "Ġproportion": 6320,
      "ĠOxford": 6321,
      "Ġbudget": 6322,
      "Ġparallel": 6323,
      "AP": 6324,
      "BS": 6325,
      "ESC": 6326,
      "Roman": 6327,
      "but": 6328,
      "called": 6329,
      "gary": 6330,
      "iations": 6331,
      "kh": 6332,
      "know": 6333,
      "rong": 6334,
      "inite": 6335,
      "rep": 6336,
      "Ġov": 6337,
      "atus": 6338,
      "Ġsand": 6339,
      "Ġsky": 6340,
      "Ġske": 6341,
      "alent": 6342,
      "aration": 6343,
      "Ġinput": 6344,
      "Ġbott": 6345,
      "Ġdang": 6346,
      "omers": 6347,
      "Ġlivestock": 6348,
      "ĠTom": 6349,
      "Ġthir": 6350,
      "uras": 6351,
      "ivated": 6352,
      "Ġgender": 6353,
      "ĠBet": 6354,
      "ĠBalk": 6355,
      "Ġstability": 6356,
      "Ġstrict": 6357,
      "ĠPash": 6358,
      "ĠEducation": 6359,
      "ĠLog": 6360,
      "ĠLingu": 6361,
      "ĠGo": 6362,
      "ĠWal": 6363,
      "ĠWind": 6364,
      "ĠDo": 6365,
      "ishment": 6366,
      "ube": 6367,
      "Ġdisag": 6368,
      "Ġdisapp": 6369,
      "ronic": 6370,
      "oked": 6371,
      "owned": 6372,
      "Ġsym": 6373,
      "archy": 6374,
      "Ġsole": 6375,
      "Ġemuls": 6376,
      "Ġremark": 6377,
      "Ġuseful": 6378,
      "Ġvariation": 6379,
      "Ġmanaged": 6380,
      "ossible": 6381,
      "Ġproviding": 6382,
      "Ġdoct": 6383,
      "Ġlocations": 6384,
      "ĠProclamation": 6385,
      "ĠJohann": 6386,
      "iquity": 6387,
      "Ġseconds": 6388,
      "ennis": 6389,
      "Ġperiods": 6390,
      "ĠOnly": 6391,
      "Ġtempor": 6392,
      "cking": 6393,
      "ĠColon": 6394,
      "Ġvisited": 6395,
      "Ġreports": 6396,
      "Ġlimbs": 6397,
      "Ġassociation": 6398,
      "Ġfarms": 6399,
      "Ġsuffered": 6400,
      "Ġtreaty": 6401,
      "Ġrenew": 6402,
      "Ġalphabets": 6403,
      "Ġestablishment": 6404,
      "Ġconquered": 6405,
      "Ġsilver": 6406,
      "ĠÃĩ": 6407,
      "Ġadministrative": 6408,
      "Ġlegislature": 6409,
      "ĠMuslims": 6410,
      "Ġexhibition": 6411,
      "Ġvariance": 6412,
      "ĠSeries": 6413,
      "Ġnormal": 6414,
      "Ġobtained": 6415,
      "Ġprecip": 6416,
      "Ġwalls": 6417,
      "Ġprice": 6418,
      "ĠAnimals": 6419,
      "Ġbehavi": 6420,
      "Ġtelescope": 6421,
      "Ġdestroyed": 6422,
      "Ġreserves": 6423,
      "speaking": 6424,
      "Ġfaith": 6425,
      "Ġbreeding": 6426,
      "Ġmurder": 6427,
      "ĠAndrei": 6428,
      "Ġprepared": 6429,
      "Ġwithdraw": 6430,
      "ĠOrganization": 6431,
      "Apple": 6432,
      "Ġpredominantly": 6433,
      "ĠBaku": 6434,
      "Ġconnection": 6435,
      "Ġsubstantial": 6436,
      "olithic": 6437,
      "ĠOmotic": 6438,
      "ambiguation": 6439,
      "olloquial": 6440,
      "ĠLovell": 6441,
      "Aristotle": 6442,
      "ĠAkira": 6443,
      "36": 6444,
      "85": 6445,
      "AI": 6446,
      "OH": 6447,
      "aug": 6448,
      "fishes": 6449,
      "gar": 6450,
      "wa": 6451,
      "ÅŁ": 6452,
      "Ġtar": 6453,
      "erted": 6454,
      "rehens": 6455,
      "Ġsides": 6456,
      "Ġcart": 6457,
      "arks": 6458,
      "Ġinner": 6459,
      "Ġfestival": 6460,
      "ĠAsteroids": 6461,
      "iling": 6462,
      "ĠTw": 6463,
      "Ġnav": 6464,
      "amb": 6465,
      "ushed": 6466,
      "othe": 6467,
      "oter": 6468,
      "Ġ().": 6469,
      "ĠMad": 6470,
      "ĠMax": 6471,
      "ĠBetween": 6472,
      "ĠPicture": 6473,
      "abilities": 6474,
      "ĠRh": 6475,
      "ĠNot": 6476,
      "ĠFer": 6477,
      "ĠFund": 6478,
      "ĠFried": 6479,
      "Ġexports": 6480,
      "ocracy": 6481,
      "quet": 6482,
      "ogy": 6483,
      "iak": 6484,
      "ession": 6485,
      "ĠJour": 6486,
      "ĠAlien": 6487,
      "Ġplot": 6488,
      "ĠUnivers": 6489,
      "Ġclay": 6490,
      "Ġenforce": 6491,
      "Ġpartly": 6492,
      "Ġteac": 6493,
      "ĠChic": 6494,
      "ĠVis": 6495,
      "Ġscore": 6496,
      "Ġacknow": 6497,
      "Ġrecomm": 6498,
      "Ġattacks": 6499,
      "Ġassass": 6500,
      "Ġassigned": 6501,
      "ĠSeven": 6502,
      "chen": 6503,
      "onds": 6504,
      "Ġemp": 6505,
      "Ġtransmission": 6506,
      "Ġextinct": 6507,
      "Ġ1963": 6508,
      "Ġpersons": 6509,
      "ĠProject": 6510,
      "Ġ1988": 6511,
      "Ġ1972": 6512,
      "Ġ1974": 6513,
      "Ġmuscle": 6514,
      "autiful": 6515,
      "Ġshell": 6516,
      "Ġdivisions": 6517,
      "Ġaffidav": 6518,
      "Ġviews": 6519,
      "ĠChristians": 6520,
      "Ġpredicted": 6521,
      "Ġruled": 6522,
      "Ġprize": 6523,
      "Ġepis": 6524,
      "Ġcontributions": 6525,
      "ĠMinister": 6526,
      "Ġfishing": 6527,
      "Ġemerg": 6528,
      "Ġjudg": 6529,
      "Ġamounts": 6530,
      "Ġinvestig": 6531,
      "Ġinterpre": 6532,
      "Ġcommitted": 6533,
      "Ġsafety": 6534,
      "Ġchalleng": 6535,
      "Ġtheorem": 6536,
      "Ġopin": 6537,
      "Ġarchitecture": 6538,
      "ĠPhilosophy": 6539,
      "Islam": 6540,
      "ĠLuanda": 6541,
      "Ġphrase": 6542,
      "Angola": 6543,
      "ĠSaturn": 6544,
      "ĠiPhone": 6545,
      "Ġartificial": 6546,
      "iciency": 6547,
      ".),": 6548,
      "Modern": 6549,
      "New": 6550,
      "aic": 6551,
      "lig": 6552,
      "lik": 6553,
      "ooth": 6554,
      "rig": 6555,
      "Ġsen": 6556,
      "Ġsoutheast": 6557,
      "itations": 6558,
      "itational": 6559,
      "Ġwing": 6560,
      "Ġfat": 6561,
      "Ġfair": 6562,
      "Ġpp": 6563,
      "asc": 6564,
      "Ġdoll": 6565,
      "Ġdie": 6566,
      "Ġhabit": 6567,
      "stream": 6568,
      "oly": 6569,
      "ĠTri": 6570,
      "ĠTour": 6571,
      "Ġnations": 6572,
      "Ġnick": 6573,
      "iments": 6574,
      "iders": 6575,
      "ura": 6576,
      "adow": 6577,
      "Ġgall": 6578,
      "ĠMa": 6579,
      "ĠMicro": 6580,
      "that": 6581,
      "term": 6582,
      "ĠEs": 6583,
      "ĠEagle": 6584,
      "ĠLiter": 6585,
      "Ġsust": 6586,
      "ĠFederal": 6587,
      "ĠDist": 6588,
      "ĠDyn": 6589,
      "Ġrising": 6590,
      "ĠOper": 6591,
      "Ġunus": 6592,
      "ĠJo": 6593,
      "ĠJust": 6594,
      "perm": 6595,
      "ruption": 6596,
      "Ġyouth": 6597,
      "Ġenem": 6598,
      "Ġpreced": 6599,
      "Ġ300": 6600,
      "ifications": 6601,
      "ĠWars": 6602,
      "Ġaccident": 6603,
      "evertheless": 6604,
      "Ġactors": 6605,
      "Ġcoord": 6606,
      "ĠIndex": 6607,
      "Ġexpensive": 6608,
      "Ancient": 6609,
      "ĠAppe": 6610,
      "Ġdiscip": 6611,
      "zero": 6612,
      "ĠIsrael": 6613,
      "azi": 6614,
      "ĠClin": 6615,
      "Ġpublication": 6616,
      "Ġcurrents": 6617,
      "Ġofficers": 6618,
      "Ġmarine": 6619,
      "Ġradical": 6620,
      "Ġincomp": 6621,
      "Ġreligions": 6622,
      "rison": 6623,
      "Ġdemand": 6624,
      "ipping": 6625,
      "Ġanthropologists": 6626,
      "Ġopening": 6627,
      "Ġinvolving": 6628,
      "Ġbiological": 6629,
      "ictionary": 6630,
      "ĠEdward": 6631,
      "ĠPatro": 6632,
      "Ġspecialized": 6633,
      "Ġreplace": 6634,
      "Ġscholar": 6635,
      "ymph": 6636,
      "Ġgeomet": 6637,
      "ĠCalgary": 6638,
      "Ġsatisf": 6639,
      "Ġemployees": 6640,
      "Ġlisted": 6641,
      "Ġconsiderable": 6642,
      "Ġsensu": 6643,
      "Ġmolecular": 6644,
      "Ġlearning": 6645,
      "ĠDemocrats": 6646,
      "Ġstrike": 6647,
      "Ġdisplayed": 6648,
      "Ġgradually": 6649,
      "Ġvisitors": 6650,
      "Ġbehavior": 6651,
      "Ġnomine": 6652,
      "Ġcomponents": 6653,
      "ĠPatriot": 6654,
      "Ġmelting": 6655,
      "Ġpoetry": 6656,
      "ĠFreder": 6657,
      "ĠâĨĴ": 6658,
      "ĠCollins": 6659,
      "Ġroughly": 6660,
      "disambiguation": 6661,
      "hreb": 6662,
      "ĠHellenistic": 6663,
      "ĠBabyl": 6664,
      "Ġorgans": 6665,
      "aÃ§ao": 6666,
      "Ab": 6667,
      "Cont": 6668,
      "Histor": 6669,
      "Sh": 6670,
      "We": 6671,
      "box": 6672,
      "dess": 6673,
      "long": 6674,
      "language": 6675,
      "making": 6676,
      "rine": 6677,
      "vious": 6678,
      "Äĵ": 6679,
      "anth": 6680,
      "Ġsan": 6681,
      "Ġsays": 6682,
      "enz": 6683,
      "eshib": 6684,
      "aly": 6685,
      "Ġwings": 6686,
      "Ġfine": 6687,
      "Ġfresh": 6688,
      "icks": 6689,
      "Ġpet": 6690,
      "Ġpapers": 6691,
      "ĠAv": 6692,
      "ĠAFC": 6693,
      "Ġdated": 6694,
      "Ġdiver": 6695,
      "Ġhus": 6696,
      "stant": 6697,
      "Ġreign": 6698,
      "Ġreform": 6699,
      "Ġlies": 6700,
      "Ġlung": 6701,
      "elve": 6702,
      "ĠChe": 6703,
      "Ġ150": 6704,
      "otal": 6705,
      "Ġgest": 6706,
      "ules": 6707,
      "ĠMur": 6708,
      "ĠMov": 6709,
      "Ġstim": 6710,
      "Ġstories": 6711,
      "ĠHitt": 6712,
      "ĠEven": 6713,
      "ĠLt": 6714,
      "Ġvice": 6715,
      "ĠRail": 6716,
      "acent": 6717,
      "ighter": 6718,
      "ansas": 6719,
      "Ġyield": 6720,
      "Ġclosed": 6721,
      "ĠVan": 6722,
      "Ġcommem": 6723,
      "Ġagent": 6724,
      "Ġformally": 6725,
      "Ġattached": 6726,
      "Ġindirect": 6727,
      "Ġemot": 6728,
      "Ġfoundation": 6729,
      "Ġinvention": 6730,
      "Ġpolar": 6731,
      "ographical": 6732,
      "Ġelectrical": 6733,
      "Ġrefuge": 6734,
      "eck": 6735,
      "ĠOnline": 6736,
      "Ġcharacteristic": 6737,
      "Ġvalley": 6738,
      "Ġexplos": 6739,
      "agny": 6740,
      "Ġterritorial": 6741,
      "ĠBerg": 6742,
      "Ġbegin": 6743,
      "Ġexisting": 6744,
      "Ġethics": 6745,
      "Ġsixth": 6746,
      "Ġbirths": 6747,
      "Ġrecognition": 6748,
      "Ġengineering": 6749,
      "Ġparents": 6750,
      "Ġmerch": 6751,
      "Ġjoint": 6752,
      "Ġepit": 6753,
      "ĠPolit": 6754,
      "Ġdispers": 6755,
      "Ġoxid": 6756,
      "Ġeye": 6757,
      "Ġstrateg": 6758,
      "ĠCaucas": 6759,
      "Ġlinguistic": 6760,
      "Ġorbital": 6761,
      "ĠCuraÃ§ao": 6762,
      "ĠGovernment": 6763,
      "acteria": 6764,
      "Ġprices": 6765,
      "ĠMaghreb": 6766,
      "ĠAuto": 6767,
      "Ġprocedure": 6768,
      "Ġpatterns": 6769,
      "Ġabolition": 6770,
      "Ġsurrender": 6771,
      "Ġmanufacturer": 6772,
      "ĠAdditionally": 6773,
      "Arabic": 6774,
      "ĠDoug": 6775,
      "Philosophers": 6776,
      "Ġweapons": 6777,
      "ĠRoger": 6778,
      "Ġstraight": 6779,
      "ibliography": 6780,
      "ĠPtole": 6781,
      "ĠPatroclus": 6782,
      "eshiba": 6783,
      "45": 6784,
      "Ac": 6785,
      "German": 6786,
      "If": 6787,
      "ITA": 6788,
      "Leg": 6789,
      "Ne": 6790,
      "OS": 6791,
      "To": 6792,
      "US": 6793,
      "des": 6794,
      "gram": 6795,
      "greg": 6796,
      "iest": 6797,
      "jection": 6798,
      "kes": 6799,
      "mic": 6800,
      "ois": 6801,
      "tis": 6802,
      "wheel": 6803,
      "Ġtask": 6804,
      "era": 6805,
      "erts": 6806,
      "Ġsons": 6807,
      "Ġcore": 6808,
      "Ġcatal": 6809,
      "Ġcodes": 6810,
      "Ġcotton": 6811,
      "Ġintern": 6812,
      "Ġfest": 6813,
      "Ġbases": 6814,
      "ĠAle": 6815,
      "Ġmist": 6816,
      "Ġtools": 6817,
      "cted": 6818,
      "Ġlie": 6819,
      "Ġlose": 6820,
      "Ġthing": 6821,
      "Ġthick": 6822,
      "ĠSuch": 6823,
      "ĠSpecial": 6824,
      "ĠSlam": 6825,
      "ider": 6826,
      "under": 6827,
      "igrated": 6828,
      "ĠMP": 6829,
      "ĠTheatre": 6830,
      "ĠHector": 6831,
      "osph": 6832,
      "ĠGershwin": 6833,
      "Ġvs": 6834,
      "Ġvent": 6835,
      "Ġvoted": 6836,
      "ĠWall": 6837,
      "acles": 6838,
      "ĠFour": 6839,
      "ĠDam": 6840,
      "Ġrh": 6841,
      "Ġrig": 6842,
      "iales": 6843,
      "illa": 6844,
      "Ġuser": 6845,
      "ĠJean": 6846,
      "Ġchosen": 6847,
      "Ġnothing": 6848,
      "Ġadmitted": 6849,
      "aceous": 6850,
      "Ġresemb": 6851,
      "Ġproducers": 6852,
      "Ġammon": 6853,
      "Ġmeteor": 6854,
      "lectric": 6855,
      "ranch": 6856,
      "Ġ32": 6857,
      "Ġ36": 6858,
      "Ġ38": 6859,
      "Ġrecru": 6860,
      "Ġouter": 6861,
      "Ġfounding": 6862,
      "Ġ48": 6863,
      "Ġ1971": 6864,
      "ĠOrig": 6865,
      "Ġmining": 6866,
      "ĠEmperor": 6867,
      "Ġtrading": 6868,
      "Ġbackground": 6869,
      "Ġorganisms": 6870,
      "ĠRepresent": 6871,
      "Ġengaged": 6872,
      "Ġgrass": 6873,
      "Ġinspired": 6874,
      "ĠAustria": 6875,
      "Ġopposite": 6876,
      "ophytes": 6877,
      "Ġhistorians": 6878,
      "Ġstronger": 6879,
      "Ġliterally": 6880,
      "Ġruler": 6881,
      "Ġsuffering": 6882,
      "Ġexisted": 6883,
      "Ġ1921": 6884,
      "ĠPrinc": 6885,
      "Ġbirds": 6886,
      "ĠAberdeenshire": 6887,
      "ĠHarvard": 6888,
      "clusion": 6889,
      "Ġunderstand": 6890,
      "Ġcriticized": 6891,
      "Ġsongs": 6892,
      "Ġparticipated": 6893,
      "Ġdegrees": 6894,
      "Ġburied": 6895,
      "Ġrebellion": 6896,
      "Ġbonds": 6897,
      "Ġlearned": 6898,
      "Ġdiscussion": 6899,
      "Ġfellow": 6900,
      "Ġspectral": 6901,
      "Ġearthqu": 6902,
      "Ġthousand": 6903,
      "Ġsacr": 6904,
      "Ġvehicle": 6905,
      "Ġcomponent": 6906,
      "Ġachieved": 6907,
      "ĠScotland": 6908,
      "Ġgravitational": 6909,
      "Ġcovers": 6910,
      "ĠFurthermore": 6911,
      "ĠAlgiers": 6912,
      "Ġheadquarters": 6913,
      "itudes": 6914,
      "ĠProtestant": 6915,
      "ĠFlorida": 6916,
      "cyclop": 6917,
      "Ġadvantage": 6918,
      "Ġinhabitants": 6919,
      "British": 6920,
      "Ġroyal": 6921,
      "\";": 6922,
      "FA": 6923,
      "IC": 6924,
      "MP": 6925,
      "Most": 6926,
      "ault": 6927,
      "aemen": 6928,
      "bal": 6929,
      "bell": 6930,
      "down": 6931,
      "ja": 6932,
      "kin": 6933,
      "nost": 6934,
      "pass": 6935,
      "rang": 6936,
      "rance": 6937,
      "zen": 6938,
      "Ġast": 6939,
      "ati": 6940,
      "ano": 6941,
      "anied": 6942,
      "ito": 6943,
      "itz": 6944,
      "ittee": 6945,
      "Ġfly": 6946,
      "Ġfilled": 6947,
      "ĠAth": 6948,
      "ĠAdam": 6949,
      "Ġmess": 6950,
      "Ġmental": 6951,
      "Ġtourn": 6952,
      "Ġdil": 6953,
      "stel": 6954,
      "stances": 6955,
      "omical": 6956,
      "ctive": 6957,
      "Ġlic": 6958,
      "Ġlov": 6959,
      "ĠSing": 6960,
      "ĠSav": 6961,
      "ĠCO": 6962,
      "Ġgain": 6963,
      "ĠMr": 6964,
      "ĠMoh": 6965,
      "ĠBan": 6966,
      "oding": 6967,
      "ifies": 6968,
      "aya": 6969,
      "ĠLes": 6970,
      "ĠGener": 6971,
      "ĠRena": 6972,
      "Ġcoming": 6973,
      "ĠNag": 6974,
      "ĠNile": 6975,
      "ĠNGC": 6976,
      "ĠNevertheless": 6977,
      "ocal": 6978,
      "ĠInc": 6979,
      "ĠOl": 6980,
      "ĠUl": 6981,
      "ĠAlche": 6982,
      "ĠAlask": 6983,
      "ĠKenn": 6984,
      "ĠĊĠ": 6985,
      "ĠStre": 6986,
      "ricts": 6987,
      "Ġimper": 6988,
      "Ġsport": 6989,
      "contin": 6990,
      "Ġtrig": 6991,
      "unda": 6992,
      "Ġscales": 6993,
      "Ġcenters": 6994,
      "Ġconsc": 6995,
      "Ġphase": 6996,
      "Ġroads": 6997,
      "Ġroof": 6998,
      "Ġproduces": 6999,
      "Ġprefer": 7000,
      "Ġgrown": 7001,
      "Ġlarv": 7002,
      "Ġmetallic": 7003,
      "Ġcounty": 7004,
      "Ġinvaded": 7005,
      "Ġ44": 7006,
      "Ġsurf": 7007,
      "Ġstudent": 7008,
      "Ġmanip": 7009,
      "Ġimpossible": 7010,
      "Ġ1964": 7011,
      "Ġ1966": 7012,
      "Ġdecisions": 7013,
      "Ankara": 7014,
      "ĠAndrew": 7015,
      "ĠDef": 7016,
      "ashion": 7017,
      "ĠOrange": 7018,
      "hematic": 7019,
      "Ġdescend": 7020,
      "Ġmovies": 7021,
      "Ġtermin": 7022,
      "Ġproposal": 7023,
      "araoh": 7024,
      "Ġexplain": 7025,
      "ĠMusic": 7026,
      "Ġshortly": 7027,
      "ĠCarl": 7028,
      "Ġobservation": 7029,
      "Ġsignificance": 7030,
      "Ġlasted": 7031,
      "ĠPlay": 7032,
      "intosh": 7033,
      "ĠAbout": 7034,
      "Ġerror": 7035,
      "Ġhistoric": 7036,
      "Ġmassive": 7037,
      "Ġanaly": 7038,
      "Ġpassing": 7039,
      "Ġdriven": 7040,
      "Ġelim": 7041,
      "Ġdeliver": 7042,
      "Ġvolunte": 7043,
      "Ġheavier": 7044,
      "Ġmerc": 7045,
      "Ġmerely": 7046,
      "Ġ1776": 7047,
      "ocratic": 7048,
      "Ã¼r": 7049,
      "ĠMinor": 7050,
      "Ġdetermine": 7051,
      "Ġranking": 7052,
      "United": 7053,
      "Ġionic": 7054,
      "Ġuniversal": 7055,
      "Ġsurvived": 7056,
      "ĠGraham": 7057,
      "abulary": 7058,
      "Ġleadership": 7059,
      "Andor": 7060,
      "Ġdamage": 7061,
      "Ġranging": 7062,
      "Ġjurisdictions": 7063,
      "Ġsegment": 7064,
      "Ġrevealed": 7065,
      "ĠBuddhism": 7066,
      "Ġcontroversial": 7067,
      "Ġdropped": 7068,
      "Ġpremi": 7069,
      "Ġpiece": 7070,
      "ĠAustralian": 7071,
      "ĠGolden": 7072,
      "Ġborrowed": 7073,
      "Ġconcluded": 7074,
      "Ġthermal": 7075,
      "ĠCeres": 7076,
      "ĠService": 7077,
      "Ġexpedition": 7078,
      "Ġacknowled": 7079,
      "Ġhusband": 7080,
      "38": 7081,
      "79": 7082,
      "Hitchcock": 7083,
      "PG": 7084,
      "cow": 7085,
      "flu": 7086,
      "lines": 7087,
      "nic": 7088,
      "oard": 7089,
      "pent": 7090,
      "rise": 7091,
      "wolf": 7092,
      "Ġ),": 7093,
      "Ġzero": 7094,
      "Ġtong": 7095,
      "erals": 7096,
      "atched": 7097,
      "encies": 7098,
      "Ġcaecilians": 7099,
      "itis": 7100,
      "itors": 7101,
      "Ġwitness": 7102,
      "Ġpione": 7103,
      "Ġbattles": 7104,
      "Ġmamm": 7105,
      "Ġdating": 7106,
      "Ġdraft": 7107,
      "omorph": 7108,
      "Ġloyal": 7109,
      "ĠTuring": 7110,
      "ĠTimes": 7111,
      "ĠSaint": 7112,
      "etics": 7113,
      "urches": 7114,
      "char": 7115,
      "ĠCast": 7116,
      "ulating": 7117,
      "ĠMajor": 7118,
      "thod": 7119,
      "ĠPot": 7120,
      "ĠPenn": 7121,
      "ĠHay": 7122,
      "Ġwhy": 7123,
      "opher": 7124,
      "ĠGames": 7125,
      "ĠDagny": 7126,
      "Ġran": 7127,
      "ĠOs": 7128,
      "Ġunst": 7129,
      "ultan": 7130,
      "acts": 7131,
      "ricted": 7132,
      "outheastern": 7133,
      "Ġcancer": 7134,
      "ĠChild": 7135,
      "Ġamp": 7136,
      "Ġpreferred": 7137,
      "Ġformula": 7138,
      "arii": 7139,
      "Ġattended": 7140,
      "aths": 7141,
      "onda": 7142,
      "iversary": 7143,
      "Ġdiff": 7144,
      "Ġinterior": 7145,
      "Ġcolour": 7146,
      "Ġwars": 7147,
      "Ġactor": 7148,
      "Ġgenera": 7149,
      "Ġstudios": 7150,
      "Ġtrain": 7151,
      "Ġcarry": 7152,
      "Ġlongest": 7153,
      "Ġedited": 7154,
      "Ġreflected": 7155,
      "Alabama": 7156,
      "cientific": 7157,
      "ylvan": 7158,
      "Ġplaying": 7159,
      "ĠWhig": 7160,
      "Ġofficer": 7161,
      "rowing": 7162,
      "Ġfinished": 7163,
      "Ġreceiving": 7164,
      "Ġparliament": 7165,
      "Ġ1939": 7166,
      "ĠQur": 7167,
      "Ġprevail": 7168,
      "Ġcombat": 7169,
      "Ġrecords": 7170,
      "Ġbioc": 7171,
      "Ġdeclined": 7172,
      "ĠHeritage": 7173,
      "ĠRoad": 7174,
      "Ġresearc": 7175,
      "ĠExp": 7176,
      "ĠExamples": 7177,
      "Ġofficials": 7178,
      "Ġdifficulty": 7179,
      "ĠCountry": 7180,
      "ĠMacintosh": 7181,
      "Ġcopper": 7182,
      "Ġcovering": 7183,
      "Ġalchemists": 7184,
      "Ġdetailed": 7185,
      "Ġrequirements": 7186,
      "Ġregularly": 7187,
      "Ġdistinguished": 7188,
      "Ġcelebrated": 7189,
      "piration": 7190,
      "Ġmouthwashes": 7191,
      "communic": 7192,
      "Afroasiatic": 7193,
      "Ġslowly": 7194,
      "Ġtelescopes": 7195,
      "Ġsusp": 7196,
      "Ġconstitu": 7197,
      "Ġadjacent": 7198,
      "Ġdiplomatic": 7199,
      "Ġmaximum": 7200,
      "ĠMongolic": 7201,
      "ĠSilver": 7202,
      "aturally": 7203,
      "ĠDisney": 7204,
      "Ġcandidate": 7205,
      "Ġpermanent": 7206,
      "Ġaccompanied": 7207,
      "Ġopportunity": 7208,
      "Ġgalaxy": 7209,
      "ĠToday": 7210,
      "Ġalcohol": 7211,
      "Ġsatellite": 7212,
      "ĠAlexandria": 7213,
      "Ġplatform": 7214,
      "Alberta": 7215,
      "Ġcrisis": 7216,
      "Ġaffidavit": 7217,
      "ylvania": 7218,
      "?\"": 7219,
      "Ge": 7220,
      "flight": 7221,
      "gu": 7222,
      "grad": 7223,
      "modern": 7224,
      "no": 7225,
      "oic": 7226,
      "rors": 7227,
      "wall": 7228,
      "yer": 7229,
      "ÄŁ": 7230,
      "Ġtim": 7231,
      "Ġtests": 7232,
      "Ġtennis": 7233,
      "iny": 7234,
      "Ġsounds": 7235,
      "Ġinstitution": 7236,
      "Ġfolk": 7237,
      "Ġpeninsula": 7238,
      "Ġbreat": 7239,
      "Ġboy": 7240,
      "Ġdiversity": 7241,
      "Ġhired": 7242,
      "olve": 7243,
      "ĠTok": 7244,
      "ĠSolar": 7245,
      "ĠSeward": 7246,
      "urd": 7247,
      "ivist": 7248,
      "adp": 7249,
      "unction": 7250,
      "Ġgot": 7251,
      "ĠMission": 7252,
      "Ġalter": 7253,
      "Ġstages": 7254,
      "owered": 7255,
      "emble": 7256,
      "ĠPower": 7257,
      "umes": 7258,
      "opot": 7259,
      "ĠLas": 7260,
      "ĠLabor": 7261,
      "ĠGood": 7262,
      "ĠRem": 7263,
      "ĠWrit": 7264,
      "ĠFar": 7265,
      "Ġexerc": 7266,
      "Ġhence": 7267,
      "ĠInformation": 7268,
      "ĠUeshiba": 7269,
      "Ġunion": 7270,
      "second": 7271,
      "ĠAlgorith": 7272,
      "ource": 7273,
      "ishop": 7274,
      "apse": 7275,
      "Ġadject": 7276,
      "active": 7277,
      "Ġspelling": 7278,
      "Ġtruth": 7279,
      "ĠThough": 7280,
      "enses": 7281,
      "Ġ37": 7282,
      "ysse": 7283,
      "Ġsurvey": 7284,
      "Ġvariations": 7285,
      "Ġtransition": 7286,
      "Ġprovincial": 7287,
      "Ġcalls": 7288,
      "Ġefficient": 7289,
      "Ġsimult": 7290,
      "ĠAngora": 7291,
      "Ġ1965": 7292,
      "Ġorigins": 7293,
      "ledon": 7294,
      "lishing": 7295,
      "Ġdepart": 7296,
      "Ġretreat": 7297,
      "pective": 7298,
      "Ġlegacy": 7299,
      "Ġminister": 7300,
      "Ġmineral": 7301,
      "Alaska": 7302,
      "Ġleads": 7303,
      "Ġexperiences": 7304,
      "rently": 7305,
      "Ġpropag": 7306,
      "Ġstatue": 7307,
      "Ġcapacity": 7308,
      "Ġbroke": 7309,
      "ĠClockwork": 7310,
      "ĠAchaemen": 7311,
      "ĠColor": 7312,
      "Ġmarkets": 7313,
      "Ġaffairs": 7314,
      "Ġadvances": 7315,
      "Ġshowing": 7316,
      "Ġsolve": 7317,
      "Ġarguments": 7318,
      "Ġfewer": 7319,
      "Ġoccurring": 7320,
      "Ġ1945": 7321,
      "ĠAssembly": 7322,
      "Ġmembership": 7323,
      "Ġsuffix": 7324,
      "Ġassistant": 7325,
      "Ġscreenplay": 7326,
      "Ġpronoun": 7327,
      "Ġsuperior": 7328,
      "Ġpainting": 7329,
      "ĠMinistry": 7330,
      "Ġteams": 7331,
      "Ġestablishing": 7332,
      "Ġregarding": 7333,
      "Ġdominant": 7334,
      "Ġamphibian": 7335,
      "Ġmountains": 7336,
      "going": 7337,
      "Ġinvestment": 7338,
      "ĠBarb": 7339,
      "Ġtransportation": 7340,
      "Ġceremon": 7341,
      "Ġmechanical": 7342,
      "Ġboundary": 7343,
      "ĠIranian": 7344,
      "Ġpurposes": 7345,
      "Ġminority": 7346,
      "olitical": 7347,
      "ĠAquarius": 7348,
      "Ġhundreds": 7349,
      "Ġjurisdiction": 7350,
      "Ġescape": 7351,
      "Ġincorporated": 7352,
      "Ġbenefit": 7353,
      "Ġpigs": 7354,
      "ĠMoscow": 7355,
      "Ġfertiliz": 7356,
      "Ġcolumns": 7357,
      "Ġaesthetic": 7358,
      "eligion": 7359,
      "Ġneuron": 7360,
      "icitly": 7361,
      "Ġatmosphere": 7362,
      "Ġoccasionally": 7363,
      "ĠProduction": 7364,
      "Ġbottom": 7365,
      "Ġprecipitation": 7366,
      "ĠFriedrich": 7367,
      "ĠLtd": 7368,
      "Ġcommemor": 7369,
      "ĠKennedy": 7370,
      "33": 7371,
      "Can": 7372,
      "Col": 7373,
      "Etymology": 7374,
      "FL": 7375,
      "General": 7376,
      "HE": 7377,
      "Se": 7378,
      "TS": 7379,
      "aan": 7380,
      "bons": 7381,
      "da": 7382,
      "gr": 7383,
      "gal": 7384,
      "gom": 7385,
      "jamin": 7386,
      "ny": 7387,
      "oo": 7388,
      "ti": 7389,
      "vest": 7390,
      "yo": 7391,
      "inced": 7392,
      "eria": 7393,
      "Ġtheor": 7394,
      "Ġtheater": 7395,
      "Ġsed": 7396,
      "Ġsamples": 7397,
      "esis": 7398,
      "Ġcattle": 7399,
      "Ġwave": 7400,
      "Ġwaves": 7401,
      "organ": 7402,
      "arant": 7403,
      "Ġfra": 7404,
      "ican": 7405,
      "icians": 7406,
      "Ġpark": 7407,
      "Ġpicture": 7408,
      "ĠAA": 7409,
      "Ġmigration": 7410,
      "ilus": 7411,
      "Ġlit": 7412,
      "ĠTit": 7413,
      "elly": 7414,
      "Ġnone": 7415,
      "Ġnaval": 7416,
      "ĠSir": 7417,
      "eton": 7418,
      "ivism": 7419,
      "adian": 7420,
      "ulg": 7421,
      "ĠMSA": 7422,
      "ĠBBC": 7423,
      "Ġstock": 7424,
      "Ġstyl": 7425,
      "osure": 7426,
      "Ġprove": 7427,
      "odyn": 7428,
      "ĠEqu": 7429,
      "agh": 7430,
      "ĠLar": 7431,
      "Ġvel": 7432,
      "Ġvess": 7433,
      "Ġvision": 7434,
      "Ġvaries": 7435,
      "Ġvoting": 7436,
      "pping": 7437,
      "ĠNon": 7438,
      "Ġexport": 7439,
      "aine": 7440,
      "Ġ1919": 7441,
      "ĠInstead": 7442,
      "ĠOh": 7443,
      "ĠJones": 7444,
      "ĠAlp": 7445,
      "elles": 7446,
      "Ġchance": 7447,
      "ĠKong": 7448,
      "Ġworth": 7449,
      "Ġplus": 7450,
      "ova": 7451,
      "Ġpartially": 7452,
      "Ġdismiss": 7453,
      "iege": 7454,
      "uez": 7455,
      "Ġschem": 7456,
      "orses": 7457,
      "ĠAmericas": 7458,
      "Ġmetaph": 7459,
      "Ġdesire": 7460,
      "ario": 7461,
      "rani": 7462,
      "Ġsubmitted": 7463,
      "ĠConvention": 7464,
      "ysical": 7465,
      "ocked": 7466,
      "Ġwarm": 7467,
      "ĠYear": 7468,
      "Ġtransc": 7469,
      "Ġdistricts": 7470,
      "Ġsupposed": 7471,
      "Ġdecade": 7472,
      "Another": 7473,
      "Ġsevere": 7474,
      "Ġalkane": 7475,
      "Ġowned": 7476,
      "scape": 7477,
      "Ġrequest": 7478,
      "Ġvalid": 7479,
      "Ġreferences": 7480,
      "ĠConfederates": 7481,
      "Ġmarks": 7482,
      "ĠMaria": 7483,
      "rises": 7484,
      "empty": 7485,
      "ullah": 7486,
      "ĠPlan": 7487,
      "Ġgoddess": 7488,
      "Ġchanging": 7489,
      "Ġverbs": 7490,
      "ĠAssyr": 7491,
      "Ġrealized": 7492,
      "who": 7493,
      "Ġmeasured": 7494,
      "Ġ1775": 7495,
      "Ġfinds": 7496,
      "Ġsubjects": 7497,
      "Art": 7498,
      "Ġpolicies": 7499,
      "Ġtranslation": 7500,
      "Ġ1783": 7501,
      "Ġaltruistic": 7502,
      "Ġcopies": 7503,
      "Ġcosts": 7504,
      "suit": 7505,
      "Ġdomest": 7506,
      "Ġmechanics": 7507,
      "Ġambiguous": 7508,
      "Ġnominated": 7509,
      "Afghan": 7510,
      "ĠUNITA": 7511,
      "Ġconvinced": 7512,
      "Ġmillions": 7513,
      "Ġdiameter": 7514,
      "Ġresponded": 7515,
      "ĠSweden": 7516,
      "Ġfeminine": 7517,
      "Ġcircumstances": 7518,
      "ĠCrete": 7519,
      "ĠAthena": 7520,
      "ĠSeljuk": 7521,
      "ĠOdysse": 7522,
      "ĠJournal": 7523,
      "ĠChicago": 7524,
      "Ġunusual": 7525,
      "Ġearthquake": 7526,
      "Ġlarvae": 7527,
      "68": 7528,
      "CH": 7529,
      "Following": 7530,
      "Pre": 7531,
      "cd": 7532,
      "come": 7533,
      "free": 7534,
      "iar": 7535,
      "iop": 7536,
      "name": 7537,
      "pa": 7538,
      "pan": 7539,
      "rary": 7540,
      "sylvania": 7541,
      "top": 7542,
      "uate": 7543,
      "vation": 7544,
      "zes": 7545,
      "Ãł": 7546,
      "Ġtadp": 7547,
      "onia": 7548,
      "Ġsail": 7549,
      "alism": 7550,
      "aric": 7551,
      "Ġinaug": 7552,
      "Ġmang": 7553,
      "Ġmales": 7554,
      "asure": 7555,
      "level": 7556,
      "lete": 7557,
      "ompl": 7558,
      "Ġeld": 7559,
      "eland": 7560,
      "Ġnet": 7561,
      "ĠSite": 7562,
      "ĠSah": 7563,
      "idaceae": 7564,
      "urance": 7565,
      "ĠCultural": 7566,
      "ading": 7567,
      "undu": 7568,
      "Ġgills": 7569,
      "isters": 7570,
      "ĠMalt": 7571,
      "ĠIli": 7572,
      "ĠBow": 7573,
      "ĠBern": 7574,
      "Ġstem": 7575,
      "Ġconjug": 7576,
      "Ġwaste": 7577,
      "empl": 7578,
      "ĠHoll": 7579,
      "umm": 7580,
      "esta": 7581,
      "ifice": 7582,
      "ĠLud": 7583,
      "ĠLast": 7584,
      "ĠLib": 7585,
      "ĠLanguage": 7586,
      "abas": 7587,
      "ĠFil": 7588,
      "ĠFamily": 7589,
      "ĠDen": 7590,
      "rie": 7591,
      "rier": 7592,
      "Ġheard": 7593,
      "oga": 7594,
      "Ġselection": 7595,
      "ĠUTC": 7596,
      "ĠJack": 7597,
      "ework": 7598,
      "ĠAnth": 7599,
      "Ġplural": 7600,
      "ricks": 7601,
      "Ġperceived": 7602,
      "ĠVen": 7603,
      "Ġscenes": 7604,
      "Ġconsensus": 7605,
      "Ġroles": 7606,
      "Ġsymp": 7607,
      "Ġformat": 7608,
      "ĠApoll": 7609,
      "Ġovert": 7610,
      "Ġsomeone": 7611,
      "ribed": 7612,
      "ĠConc": 7613,
      "aean": 7614,
      "aeus": 7615,
      "inda": 7616,
      "Ġacceler": 7617,
      "Ġ45": 7618,
      "ĠAmstel": 7619,
      "Ġwrites": 7620,
      "Ġreprodu": 7621,
      "Ġreputation": 7622,
      "ophone": 7623,
      "ĠSpring": 7624,
      "Anim": 7625,
      "Ġpersu": 7626,
      "Ġlegit": 7627,
      "Ġeditor": 7628,
      "ennial": 7629,
      "Ġconfig": 7630,
      "Ġconfirmed": 7631,
      "Ġ1864": 7632,
      "Ġreferring": 7633,
      "Ġinduced": 7634,
      "Ġdescribing": 7635,
      "Ã©e": 7636,
      "Ġpracticed": 7637,
      "Ġrestored": 7638,
      "Ġindependently": 7639,
      "Ġglass": 7640,
      "Ġ1937": 7641,
      "Ġmulti": 7642,
      "Ġspoke": 7643,
      "Ġanalog": 7644,
      "Ġbiology": 7645,
      "Ġbegun": 7646,
      "Ġsuggesting": 7647,
      "Ġpromoted": 7648,
      "Ġformerly": 7649,
      "Ġborough": 7650,
      "ĠCommittee": 7651,
      "ĠNova": 7652,
      "isco": 7653,
      "Ġphotographs": 7654,
      "Ġdestruction": 7655,
      "Ġabsence": 7656,
      "ĠPeriod": 7657,
      "Ġcollapse": 7658,
      "Ġfacilities": 7659,
      "Ġsuccessfully": 7660,
      "Ġastronomical": 7661,
      "ĠChristianity": 7662,
      "Ġeasier": 7663,
      "ĠMissouri": 7664,
      "Ġburial": 7665,
      "Ġviolent": 7666,
      "Ġcommittee": 7667,
      "Ġmachines": 7668,
      "Ġrotation": 7669,
      "Ġlooking": 7670,
      "ammad": 7671,
      "Ġobtain": 7672,
      "Ġpsychology": 7673,
      "Ġsettlements": 7674,
      "Earth": 7675,
      "Ġdrawings": 7676,
      "Ġcontinuous": 7677,
      "Ġkinds": 7678,
      "Ġaimed": 7679,
      "Ġsacred": 7680,
      "olitan": 7681,
      "warf": 7682,
      "imbledon": 7683,
      "Ġhorse": 7684,
      "ĠPatriots": 7685,
      "Ġprocedures": 7686,
      "Ġthreatened": 7687,
      "Ġachieve": 7688,
      "ĠObject": 7689,
      "Ġvocabulary": 7690,
      "Ġdependent": 7691,
      "ĠBenjamin": 7692,
      "Ġstruggle": 7693,
      "Khmer": 7694,
      "ĠMartin": 7695,
      "ĠCornwall": 7696,
      "ĠHowe": 7697,
      "ĠCatalan": 7698,
      "ĠIrish": 7699,
      "ĠVietnam": 7700,
      "Ġrepeated": 7701,
      "ĠPhoenic": 7702,
      "ĠSecretary": 7703,
      "Islamic": 7704,
      "ĠClinton": 7705,
      "ĠDouglas": 7706,
      "ĠMPLA": 7707,
      "ĠRenaissance": 7708,
      "Ġresearchers": 7709,
      "opotam": 7710,
      "ĠColorado": 7711,
      "gomery": 7712,
      "Ġdomesticated": 7713,
      "67": 7714,
      "AC": 7715,
      "Dem": 7716,
      "IP": 7717,
      "LS": 7718,
      "Trans": 7719,
      "ding": 7720,
      "fish": 7721,
      "iat": 7722,
      "iology": 7723,
      "mann": 7724,
      "nick": 7725,
      "oids": 7726,
      "tr": 7727,
      "town": 7728,
      "uous": 7729,
      "Ã¸": 7730,
      "Î±": 7731,
      "Î»": 7732,
      "ĠÂ": 7733,
      "Ġ).": 7734,
      "Ġtell": 7735,
      "Ġtape": 7736,
      "Ġaro": 7737,
      "anim": 7738,
      "ancing": 7739,
      "enger": 7740,
      "iser": 7741,
      "Ġce": 7742,
      "Ġcolloquial": 7743,
      "alf": 7744,
      "itumen": 7745,
      "Ġwatch": 7746,
      "Ġfaster": 7747,
      "Ġfounder": 7748,
      "ĠpH": 7749,
      "Ġpul": 7750,
      "Ġbill": 7751,
      "ĠAz": 7752,
      "roll": 7753,
      "Ġtool": 7754,
      "stad": 7755,
      "Ġreality": 7756,
      "eline": 7757,
      "Ġthr": 7758,
      "ĠSqu": 7759,
      "amorph": 7760,
      "Ġasc": 7761,
      "Ġbeings": 7762,
      "ulus": 7763,
      "ĠMo": 7764,
      "andahar": 7765,
      "ĠEll": 7766,
      "ĠEucl": 7767,
      "ĠLord": 7768,
      "ĠGO": 7769,
      "ĠGÃ¶": 7770,
      "ĠWork": 7771,
      "ĠWomen": 7772,
      "ĠWimbledon": 7773,
      "ques": 7774,
      "ĠIng": 7775,
      "Ġring": 7776,
      "ĠJord": 7777,
      "aryn": 7778,
      "Ġchurch": 7779,
      "ĠKen": 7780,
      "Ġabstract": 7781,
      "Ġcompl": 7782,
      "Ġshar": 7783,
      "ĠStep": 7784,
      "uba": 7785,
      "Ġclust": 7786,
      "Ġclade": 7787,
      "Ġallies": 7788,
      "190": 7789,
      "ĠThrough": 7790,
      "Ġscatter": 7791,
      "Ġpharaoh": 7792,
      "Ġregime": 7793,
      "Ġassess": 7794,
      "Ġindicated": 7795,
      "Ġprint": 7796,
      "creen": 7797,
      "inding": 7798,
      "Ġdefense": 7799,
      "Ġcharged": 7800,
      "ictional": 7801,
      "Ġflo": 7802,
      "Ġoffers": 7803,
      "Ġmanuscript": 7804,
      "Ġdoing": 7805,
      "Ġendings": 7806,
      "Ġterrestrial": 7807,
      "Ġexposed": 7808,
      "ĠEncyclop": 7809,
      "Ġadding": 7810,
      "ĠLev": 7811,
      "Ġ1983": 7812,
      "Ġlegend": 7813,
      "Ġ75": 7814,
      "Ġminimum": 7815,
      "aneously": 7816,
      "Alban": 7817,
      "Ġstatements": 7818,
      "Ġpossibility": 7819,
      "Ġdivine": 7820,
      "Ġrepresentative": 7821,
      "Ġmarking": 7822,
      "Ġargue": 7823,
      "Ġpatron": 7824,
      "Ġprocessing": 7825,
      "Ġpubl": 7826,
      "Ġderives": 7827,
      "apping": 7828,
      "Ġsouthwest": 7829,
      "def": 7830,
      "Ġvertebr": 7831,
      "ĠBrand": 7832,
      "Ġskill": 7833,
      "bski": 7834,
      "ĠPrime": 7835,
      "ĠArtemis": 7836,
      "ĠCommon": 7837,
      "Ġdelay": 7838,
      "Ġidentify": 7839,
      "ushing": 7840,
      "Ġparent": 7841,
      "yrus": 7842,
      "ĠDelos": 7843,
      "Ġtwelve": 7844,
      "Ġdifficulties": 7845,
      "Ġgolden": 7846,
      "Ġcreative": 7847,
      "ĠAirport": 7848,
      "Class": 7849,
      "Ġsquares": 7850,
      "Ġweek": 7851,
      "Ã«r": 7852,
      "success": 7853,
      "Ġvarying": 7854,
      "ĠRegion": 7855,
      "ĠGovernor": 7856,
      "ĠGlobal": 7857,
      "Ġtheoretical": 7858,
      "Ġconsumption": 7859,
      "Ġvillages": 7860,
      "Ġnarrow": 7861,
      "Ġcredited": 7862,
      "Ġmunicipalities": 7863,
      "ĠSimilar": 7864,
      "Ġmythology": 7865,
      "Ġfilmmaker": 7866,
      "Ġsecure": 7867,
      "Ġstreets": 7868,
      "Ġdensity": 7869,
      "Ġnewspaper": 7870,
      "Ġadvertis": 7871,
      "zybski": 7872,
      "Ġtrend": 7873,
      "onomous": 7874,
      "Ġfetus": 7875,
      "ĠJefferson": 7876,
      "ĠOffice": 7877,
      "Ġuncertain": 7878,
      "Ġmartial": 7879,
      "Ġjudgment": 7880,
      "Andorra": 7881,
      "ĠSquare": 7882,
      "49": 7883,
      "66": 7884,
      "Ass": 7885,
      "Azerbaijan": 7886,
      "His": 7887,
      "Med": 7888,
      "North": 7889,
      "aul": 7890,
      "bul": 7891,
      "care": 7892,
      "din": 7893,
      "ek": 7894,
      "lation": 7895,
      "mir": 7896,
      "tz": 7897,
      "uw": 7898,
      "uis": 7899,
      "xual": 7900,
      "zo": 7901,
      "ĠÅ": 7902,
      "inder": 7903,
      "Ġodd": 7904,
      "atri": 7905,
      "Ġsands": 7906,
      "Ġcul": 7907,
      "ala": 7908,
      "aler": 7909,
      "alog": 7910,
      "itals": 7911,
      "Ġansw": 7912,
      "Ġpictures": 7913,
      "Ġban": 7914,
      "ĠAC": 7915,
      "roke": 7916,
      "rolled": 7917,
      "leton": 7918,
      "Ġdu": 7919,
      "Ġdwarf": 7920,
      "Ġhorn": 7921,
      "stan": 7922,
      "standing": 7923,
      "Ġlyre": 7924,
      "ela": 7925,
      "Ġnaturally": 7926,
      "ĠSic": 7927,
      "ĠSound": 7928,
      "ims": 7929,
      "imates": 7930,
      "etary": 7931,
      "ching": 7932,
      "chain": 7933,
      "Ġforts": 7934,
      "Ġbeat": 7935,
      "Ġgiant": 7936,
      "rav": 7937,
      "race": 7938,
      "ĠMuch": 7939,
      "ĠThen": 7940,
      "ĠBu": 7941,
      "emale": 7942,
      "ĠPo": 7943,
      "ĠPap": 7944,
      "ĠPublic": 7945,
      "estab": 7946,
      "agu": 7947,
      "ager": 7948,
      "Ġdeity": 7949,
      "romise": 7950,
      "ĠLittle": 7951,
      "Ġven": 7952,
      "abited": 7953,
      "Ġcomets": 7954,
      "ĠFreed": 7955,
      "ĠDarius": 7956,
      "ocene": 7957,
      "Ġmoist": 7958,
      "ogether": 7959,
      "Ġseas": 7960,
      "Ġuniversity": 7961,
      "alls": 7962,
      "Ġarrest": 7963,
      "Ġcompos": 7964,
      "Ġcomprehens": 7965,
      "Ġplanning": 7966,
      "Ġkilling": 7967,
      "Ġadhe": 7968,
      "Ġapply": 7969,
      "Ġapprec": 7970,
      "construction": 7971,
      "Ġrow": 7972,
      "Ġrocks": 7973,
      "ĠAsh": 7974,
      "aws": 7975,
      "Ġearned": 7976,
      "ĠSecurity": 7977,
      "Ġinfant": 7978,
      "Ġnews": 7979,
      "Ġflower": 7980,
      "Ġraise": 7981,
      "Ġweather": 7982,
      "Ġestimate": 7983,
      "ĠArabs": 7984,
      "Ġdoctor": 7985,
      "Ġextract": 7986,
      "Ġmainland": 7987,
      "Ġfeet": 7988,
      "ĠShort": 7989,
      "ĠEmancipation": 7990,
      "ĠAlbanians": 7991,
      "ieth": 7992,
      "Ġmathematic": 7993,
      "Ġshel": 7994,
      "Ġpublicly": 7995,
      "Ġtelegraph": 7996,
      "Ġoperated": 7997,
      "Ġgrand": 7998,
      "Ġgrant": 7999,
      "Ġradius": 8000,
      "Ġrestricted": 8001,
      "Ġpatri": 8002,
      "ĠCentury": 8003,
      "ĠTherefore": 8004,
      "Ġchildhood": 8005,
      "Ġ1933": 8006,
      "eanwhile": 8007,
      "Ġprofit": 8008,
      "Ġinstructions": 8009,
      "ĠHerat": 8010,
      "Ġethical": 8011,
      "ĠBefore": 8012,
      "phabet": 8013,
      "Ġsentence": 8014,
      "Ġmyst": 8015,
      "rapy": 8016,
      "Ġpriest": 8017,
      "Ġseek": 8018,
      "Ġrecognize": 8019,
      "Ġconsisted": 8020,
      "queous": 8021,
      "Ġemerging": 8022,
      "Ġconcentrations": 8023,
      "Ġtourists": 8024,
      "ĠSyria": 8025,
      "Ġnecessarily": 8026,
      "Ġremainder": 8027,
      "Ġvariants": 8028,
      "Ġclearly": 8029,
      "Ġdetails": 8030,
      "ĠStudy": 8031,
      "Ġimmigrants": 8032,
      "Ġrocket": 8033,
      "Ġsalamander": 8034,
      "Ġverbal": 8035,
      "Ġwooden": 8036,
      "Ġhoriz": 8037,
      "ĠKarl": 8038,
      "Ġblockade": 8039,
      "Ġfilmmakers": 8040,
      "ĠLoyalists": 8041,
      "Ġmobile": 8042,
      "Ġbalance": 8043,
      "Ġmortality": 8044,
      "ĠSenate": 8045,
      "ĠMontgomery": 8046,
      "uilding": 8047,
      "Ġsovereignty": 8048,
      "Ġabundant": 8049,
      "Ġfossil": 8050,
      "Ġenforcement": 8051,
      "Ġepisode": 8052,
      "Ġinterpreted": 8053,
      "ĠDistrict": 8054,
      "ĠAppeals": 8055,
      "Ġnominees": 8056,
      "Ġfestivals": 8057,
      "ĠStreet": 8058,
      "Ġunstable": 8059,
      "Ġampere": 8060,
      "ĠIliad": 8061,
      "ĠCornwallis": 8062,
      "39": 8063,
      "42": 8064,
      "73": 8065,
      "Tur": 8066,
      "aire": 8067,
      "cule": 8068,
      "div": 8069,
      "hor": 8070,
      "run": 8071,
      "ser": 8072,
      "zuel": 8073,
      "ĊĠĊĠĊĠĊĠĊ": 8074,
      "Ġ>": 8075,
      "Ġtends": 8076,
      "Ġtrying": 8077,
      "inos": 8078,
      "Ġtheat": 8079,
      "reland": 8080,
      "Ġcas": 8081,
      "Ġcard": 8082,
      "Ġcrust": 8083,
      "itts": 8084,
      "Ġwa": 8085,
      "orous": 8086,
      "oride": 8087,
      "arab": 8088,
      "Ġbomb": 8089,
      "ĠAT": 8090,
      "ĠAPG": 8091,
      "Ġmiss": 8092,
      "Ġdrop": 8093,
      "Ġhit": 8094,
      "oured": 8095,
      "Ġlosing": 8096,
      "ĠTem": 8097,
      "ĠTAI": 8098,
      "Ġthrust": 8099,
      "ĠSans": 8100,
      "amics": 8101,
      "ĠCart": 8102,
      "ĠCape": 8103,
      "adium": 8104,
      "uther": 8105,
      "ulner": 8106,
      "ĠMir": 8107,
      "ĠMill": 8108,
      "ĠIron": 8109,
      "Ġstand": 8110,
      "ĠHong": 8111,
      "ĠHorn": 8112,
      "ĠHospital": 8113,
      "osity": 8114,
      "Ġprost": 8115,
      "ĠEuro": 8116,
      "ĠLi": 8117,
      "ĠLow": 8118,
      "ĠLiber": 8119,
      "ĠGall": 8120,
      "ĠRights": 8121,
      "ppe": 8122,
      "ĠNathan": 8123,
      "Ġexceed": 8124,
      "riatic": 8125,
      "Ġhect": 8126,
      "Ġunsuccess": 8127,
      "ĠJim": 8128,
      "ello": 8129,
      "Ġchampion": 8130,
      "Ġchapter": 8131,
      "Ġchurches": 8132,
      "Ġnote": 8133,
      "Ġworship": 8134,
      "Ġcomplic": 8135,
      "Ġintention": 8136,
      "place": 8137,
      "Ġclin": 8138,
      "Ġenh": 8139,
      "Ġalliance": 8140,
      "continental": 8141,
      "rency": 8142,
      "ĠVer": 8143,
      "Ġscene": 8144,
      "Ġprey": 8145,
      "Ġgross": 8146,
      "Ġassembly": 8147,
      "Ġemissions": 8148,
      "Ġaccompl": 8149,
      "Ġ400": 8150,
      "Ġcolony": 8151,
      "Ġestate": 8152,
      "lling": 8153,
      "ĠArabian": 8154,
      "Ġ55": 8155,
      "Ġcarrying": 8156,
      "Ġdecis": 8157,
      "Ġanything": 8158,
      "Ġsigns": 8159,
      "ĠProgram": 8160,
      "Ġretained": 8161,
      "Ġelectro": 8162,
      "ometimes": 8163,
      "haust": 8164,
      "Ġnamely": 8165,
      "Ġsupporting": 8166,
      "ynthe": 8167,
      "scale": 8168,
      "Ġspaceflight": 8169,
      "Ġpropos": 8170,
      "ĠEngine": 8171,
      "enezuel": 8172,
      "Ġcapable": 8173,
      "Ġcapita": 8174,
      "Ġsimilarly": 8175,
      "Ġsimilarities": 8176,
      "ĠAdriatic": 8177,
      "Ġmethane": 8178,
      "Ġreader": 8179,
      "Ġmarg": 8180,
      "Ġeveryday": 8181,
      "ĠRussell": 8182,
      "Ġlimit": 8183,
      "Ġsingular": 8184,
      "Ġhelping": 8185,
      "ĠPersia": 8186,
      "ĠPersians": 8187,
      "Ġreduction": 8188,
      "Ġantiquity": 8189,
      "ĠPrincip": 8190,
      "Ġidentity": 8191,
      "Ġrenamed": 8192,
      "Ġgeographic": 8193,
      "Ġ1778": 8194,
      "Ġgrain": 8195,
      "upport": 8196,
      "Ġfinding": 8197,
      "Ġfemales": 8198,
      "Ġestablishments": 8199,
      "ĠEliz": 8200,
      "Ġdefinitions": 8201,
      "Char": 8202,
      "Ġtourist": 8203,
      "Ġassumption": 8204,
      "Ġionisation": 8205,
      "Ġdynamic": 8206,
      "Ġquantities": 8207,
      "Ġhomes": 8208,
      "Ġsurviving": 8209,
      "Ġvariant": 8210,
      "Ġcalculations": 8211,
      "Ġrailroad": 8212,
      "Ġdeeply": 8213,
      "Ġpsychological": 8214,
      "Ġcontinuing": 8215,
      "Ġinjuries": 8216,
      "ĠCampaign": 8217,
      "Ġrevenues": 8218,
      "Ġpollution": 8219,
      "ĠArmenia": 8220,
      "ĠOlympic": 8221,
      "Ġancestor": 8222,
      "Ġevolutionary": 8223,
      "ĠScottish": 8224,
      "ĠSantos": 8225,
      "Ġattracted": 8226,
      "ĠScotia": 8227,
      "ĠGreco": 8228,
      "Ġfastest": 8229,
      "Ġdogs": 8230,
      "aharan": 8231,
      "ĠSwedish": 8232,
      "Ġrevolt": 8233,
      "ĠLoyalist": 8234,
      "Ġtissue": 8235,
      "Ġtissues": 8236,
      "ĠFactory": 8237,
      "Ġisolated": 8238,
      "ĠMesopotam": 8239,
      "Ġnoble": 8240,
      "Ġnervous": 8241,
      "Ġnortheast": 8242,
      "Ġprosper": 8243,
      "ĠiPad": 8244,
      "Ġalleged": 8245,
      "Ġrecovery": 8246,
      "ĠMorocco": 8247,
      "ĠWalter": 8248,
      "Ġchallenges": 8249,
      "ĠAthabas": 8250,
      "ĠAlaskan": 8251,
      "communications": 8252,
      "ĠAchaemenid": 8253,
      "71": 8254,
      "76": 8255,
      "Ali": 8256,
      "CS": 8257,
      "Film": 8258,
      "Greek": 8259,
      "IV": 8260,
      "Mar": 8261,
      "Member": 8262,
      "Pl": 8263,
      "bec": 8264,
      "cher": 8265,
      "gell": 8266,
      "iph": 8267,
      "kins": 8268,
      "kanes": 8269,
      "la": 8270,
      "mas": 8271,
      "nest": 8272,
      "nsted": 8273,
      "ride": 8274,
      "yst": 8275,
      "Ġrom": 8276,
      "Ġtun": 8277,
      "Ġtone": 8278,
      "hell": 8279,
      "Ġsend": 8280,
      "Ġcave": 8281,
      "itled": 8282,
      "Ġwine": 8283,
      "Ġflying": 8284,
      "icide": 8285,
      "Ġpseud": 8286,
      "Ġbinary": 8287,
      "Ġbanks": 8288,
      "Ġbronze": 8289,
      "asan": 8290,
      "leys": 8291,
      "Ġdies": 8292,
      "Ġdrawn": 8293,
      "Ġhab": 8294,
      "omic": 8295,
      "Ġrear": 8296,
      "Ġrely": 8297,
      "Ġrept": 8298,
      "Ġlists": 8299,
      "ĠSa": 8300,
      "ĠSong": 8301,
      "ĠSikh": 8302,
      "ĠCall": 8303,
      "ĠCap": 8304,
      "ĠCyp": 8305,
      "ĠCulture": 8306,
      "igo": 8307,
      "Ġgather": 8308,
      "istent": 8309,
      "uled": 8310,
      "ĠMen": 8311,
      "ĠMah": 8312,
      "irs": 8313,
      "ĠIra": 8314,
      "ĠTheod": 8315,
      "ĠBill": 8316,
      "ĠBronze": 8317,
      "Ġconsec": 8318,
      "ĠPitts": 8319,
      "ĠHD": 8320,
      "ĠHon": 8321,
      "eston": 8322,
      "ayer": 8323,
      "ĠRam": 8324,
      "ĠNum": 8325,
      "oung": 8326,
      "ĠDie": 8327,
      "ĠDNA": 8328,
      "ĠDoric": 8329,
      "ĠDictionary": 8330,
      "Ġ1900": 8331,
      "Ġru": 8332,
      "Ġranks": 8333,
      "Ġseat": 8334,
      "Ġseed": 8335,
      "Ġsevent": 8336,
      "illation": 8337,
      "Ġuncon": 8338,
      "aked": 8339,
      "asts": 8340,
      "ĠKandahar": 8341,
      "Ġabroad": 8342,
      "Ġcontest": 8343,
      "gebra": 8344,
      "iece": 8345,
      "overty": 8346,
      "ĠVenezuel": 8347,
      "Ġ1850": 8348,
      "Ġagents": 8349,
      "Ġphylogen": 8350,
      "Ġrose": 8351,
      "Ġmeat": 8352,
      "Ġjet": 8353,
      "ĠCons": 8354,
      "ĠConserv": 8355,
      "Ġfled": 8356,
      "Ġintermediate": 8357,
      "Ġgenerate": 8358,
      "banks": 8359,
      "orno": 8360,
      "Ġdecor": 8361,
      "Ġenth": 8362,
      "Ġentry": 8363,
      "Ġdepends": 8364,
      "ĠLeon": 8365,
      "ĠLevant": 8366,
      "ĠAgency": 8367,
      "ĠForce": 8368,
      "Alger": 8369,
      "inned": 8370,
      "Ġtermites": 8371,
      "scopic": 8372,
      "afe": 8373,
      "Ġanniversary": 8374,
      "Ġexplan": 8375,
      "Ġexplained": 8376,
      "Ġexplicitly": 8377,
      "Ġopera": 8378,
      "ĠAustrian": 8379,
      "Ġincident": 8380,
      "Ġdesigns": 8381,
      "Ġdesignated": 8382,
      "ĠMarc": 8383,
      "Ġnorthwest": 8384,
      "Ġfinite": 8385,
      "Ġparam": 8386,
      "Ġparks": 8387,
      "Ġpurs": 8388,
      "Ġlinked": 8389,
      "Ġmaternal": 8390,
      "2002": 8391,
      "Ġrelatives": 8392,
      "Ġiniti": 8393,
      "Ġbrand": 8394,
      "Ġlineage": 8395,
      "Ġeducational": 8396,
      "ficial": 8397,
      "ĠPrince": 8398,
      "Ġ1959": 8399,
      "ĠComputer": 8400,
      "ĠCommission": 8401,
      "Ġidentical": 8402,
      "Ġassistance": 8403,
      "Ġruns": 8404,
      "Ġfunctional": 8405,
      "1963": 8406,
      "Ġfindings": 8407,
      "hematical": 8408,
      "Ġdisputed": 8409,
      "Ġfunds": 8410,
      "curs": 8411,
      "Ġfacilit": 8412,
      "Ġloan": 8413,
      "Ġsubstances": 8414,
      "Ġeasy": 8415,
      "Ġmolecule": 8416,
      "ettes": 8417,
      "Ġembry": 8418,
      "Ġaardwolf": 8419,
      "Ġdiscussed": 8420,
      "ĠStandards": 8421,
      "Ġcheck": 8422,
      "Ġpreserved": 8423,
      "ĠKorea": 8424,
      "ĠCampbell": 8425,
      "ĠUNESC": 8426,
      "Ġstrengthe": 8427,
      "Ġgraphics": 8428,
      "Ġextension": 8429,
      "Ġranges": 8430,
      "Ġmunicipal": 8431,
      "Ġprefix": 8432,
      "Ġpieces": 8433,
      "ĠDurrani": 8434,
      "Ġinscription": 8435,
      "Ġphenomena": 8436,
      "ĠForeign": 8437,
      "ĠLegisl": 8438,
      "Ġpurchased": 8439,
      "Ġmorphology": 8440,
      "ĠIlly": 8441,
      "Ġelsewhere": 8442,
      "otelian": 8443,
      "Ġwounded": 8444,
      "ĠFederer": 8445,
      "Ġlectures": 8446,
      "Ġrestrictions": 8447,
      "Ġsulfur": 8448,
      "Ġadoption": 8449,
      "Japanese": 8450,
      "Ġappropriate": 8451,
      "Ġmonocots": 8452,
      "Ġopinion": 8453,
      "Ġdiscipline": 8454,
      "ĠFrederick": 8455,
      "Ġlungs": 8456,
      "ĠCaucasus": 8457,
      "Ġsurfaces": 8458,
      "ĠPennsylvania": 8459,
      "ĠPhoenician": 8460,
      "Ã¸nsted": 8461,
      "ĠGOTO": 8462,
      "arynge": 8463,
      "ĠAthabasca": 8464,
      "ĠUNESCO": 8465,
      "41": 8466,
      "55": 8467,
      "72": 8468,
      "AT": 8469,
      "DNA": 8470,
      "Ham": 8471,
      "Music": 8472,
      "Sem": 8473,
      "bir": 8474,
      "gl": 8475,
      "lif": 8476,
      "oys": 8477,
      "rator": 8478,
      "yll": 8479,
      "znick": 8480,
      "ĠÄ": 8481,
      "inations": 8482,
      "inery": 8483,
      "erior": 8484,
      "Ġsort": 8485,
      "Ġcorn": 8486,
      "Ġinher": 8487,
      "Ġinert": 8488,
      "Ġfur": 8489,
      "Ġfear": 8490,
      "Ġfashion": 8491,
      "Ġpan": 8492,
      "Ġpav": 8493,
      "Ġpairs": 8494,
      "Ġpoverty": 8495,
      "Ġbones": 8496,
      "ĠAyn": 8497,
      "Ġmos": 8498,
      "Ġmilk": 8499,
      "asks": 8500,
      "Ġdrug": 8501,
      "Ġhour": 8502,
      "Ġhub": 8503,
      "Ġhind": 8504,
      "Ġhaz": 8505,
      "Ġhospital": 8506,
      "oup": 8507,
      "olves": 8508,
      "Ġreaching": 8509,
      "Ġeat": 8510,
      "ĠTay": 8511,
      "ĠTungusic": 8512,
      "Ġthor": 8513,
      "ĠSu": 8514,
      "ationally": 8515,
      "using": 8516,
      "idas": 8517,
      "idges": 8518,
      "uten": 8519,
      "una": 8520,
      "Ġgif": 8521,
      "Ġglands": 8522,
      "rac": 8523,
      "istically": 8524,
      "ĠMans": 8525,
      "ĠMotor": 8526,
      "ĠISO": 8527,
      "ĠThebes": 8528,
      "ĠBol": 8529,
      "ĠBad": 8530,
      "ĠBox": 8531,
      "Ġstations": 8532,
      "owed": 8533,
      "emic": 8534,
      "ĠPle": 8535,
      "estion": 8536,
      "ĠEconomic": 8537,
      "ĠEuras": 8538,
      "ĠLong": 8539,
      "ĠLunar": 8540,
      "ĠGh": 8541,
      "ĠGray": 8542,
      "ĠRun": 8543,
      "ĠRay": 8544,
      "ĠFox": 8545,
      "Ġexhaust": 8546,
      "Ġ1914": 8547,
      "anta": 8548,
      "ptic": 8549,
      "ĠOcc": 8550,
      "ĠJacks": 8551,
      "aki": 8552,
      "ureau": 8553,
      "aryll": 8554,
      "ĠAnton": 8555,
      "Ġleaves": 8556,
      "Ġaboard": 8557,
      "Ġshift": 8558,
      "Ġshares": 8559,
      "Ġintens": 8560,
      "Ġkil": 8561,
      "ffic": 8562,
      "ĠStan": 8563,
      "Ġyellow": 8564,
      "Ġresemble": 8565,
      "Ġspend": 8566,
      "ĠArmed": 8567,
      "Ġteach": 8568,
      "ĠChief": 8569,
      "oke": 8570,
      "Ġconsult": 8571,
      "Ġroutes": 8572,
      "orship": 8573,
      "Ġrecording": 8574,
      "ĠConference": 8575,
      "Ġknew": 8576,
      "rable": 8577,
      "Ġremote": 8578,
      "Ġ43": 8579,
      "Ġinteractions": 8580,
      "Ġwebs": 8581,
      "ĠAmphib": 8582,
      "Ġgenerals": 8583,
      "Ġcalling": 8584,
      "Ġdistant": 8585,
      "Ġdistinction": 8586,
      "Ġcoff": 8587,
      "ĠArabia": 8588,
      "Ġends": 8589,
      "Ġextraction": 8590,
      "Ġgoverned": 8591,
      "Ġsmooth": 8592,
      "Ġhighlight": 8593,
      "Ġfeat": 8594,
      "Ġautonomy": 8595,
      "Ġdepth": 8596,
      "Ġ1981": 8597,
      "ussian": 8598,
      "Ġmonuments": 8599,
      "Ġmonitor": 8600,
      "egas": 8601,
      "Ġequations": 8602,
      "Ġinfluences": 8603,
      "Ġmatches": 8604,
      "Ġcorruption": 8605,
      "Ġmemorial": 8606,
      "Ġsheep": 8607,
      "ĠMarx": 8608,
      "Ġprimitive": 8609,
      "Ġlaure": 8610,
      "Ġprotests": 8611,
      "forms": 8612,
      "Ġ1943": 8613,
      "2005": 8614,
      "Ġtitled": 8615,
      "Ġswim": 8616,
      "Ġswitch": 8617,
      "Ġprompt": 8618,
      "Ġ1929": 8619,
      "Ġ1955": 8620,
      "Ġ1957": 8621,
      "Ġyounger": 8622,
      "Ġphotos": 8623,
      "1962": 8624,
      "Ġessentially": 8625,
      "Ġfalling": 8626,
      "Ġcommanded": 8627,
      "Ġacceptance": 8628,
      "Ġcomplexity": 8629,
      "Ġholding": 8630,
      "Ġdenomin": 8631,
      "Ġconquer": 8632,
      "Ġparticipate": 8633,
      "1980": 8634,
      "Ġconflicts": 8635,
      "Ġcorrespondence": 8636,
      "Ġlayers": 8637,
      "Ġlegislation": 8638,
      "Ġlegislative": 8639,
      "proof": 8640,
      "Ġuniverse": 8641,
      "ĠCorinth": 8642,
      "Ġtendency": 8643,
      "Ġappoint": 8644,
      "Ġlosses": 8645,
      "iffs": 8646,
      "Ġspectrum": 8647,
      "Ġsafe": 8648,
      "Ġreconstruct": 8649,
      "ĠArchive": 8650,
      "Ġkeeping": 8651,
      "avalry": 8652,
      "ographers": 8653,
      "Ġconsequence": 8654,
      "ĠOscars": 8655,
      "Ġlabour": 8656,
      "Ġextensively": 8657,
      "Ġbraille": 8658,
      "Ġsteps": 8659,
      "Ġwinner": 8660,
      "Ġsynthesis": 8661,
      "ĠBuddhist": 8662,
      "Ġimplies": 8663,
      "Ġbringing": 8664,
      "ĠFranklin": 8665,
      "Ġharmony": 8666,
      "Ġadults": 8667,
      "ĠModest": 8668,
      "Ġinstruments": 8669,
      "Ġbeliefs": 8670,
      "ĠDaniel": 8671,
      "Ġnewspapers": 8672,
      "ĠDirector": 8673,
      "Ġarchaeological": 8674,
      "ĠKorzybski": 8675,
      "Ġchallenged": 8676,
      "Ġdelegates": 8677,
      "Ġencouraged": 8678,
      "Ġoracle": 8679,
      "ĠDivision": 8680,
      "Ġframework": 8681,
      "ĠSherman": 8682,
      "acuum": 8683,
      "ĠFairbanks": 8684,
      "Ġunclear": 8685,
      "Ġshooting": 8686,
      "Ġexclusively": 8687,
      "Ġparadox": 8688,
      "Ġbehaviour": 8689,
      "quetÃŃ": 8690,
      "ĠDynasty": 8691,
      "Ġenemy": 8692,
      "Ġcatalog": 8693,
      "ĠPrinceton": 8694,
      "thodox": 8695,
      "ĠTokyo": 8696,
      "Ġtadpoles": 8697,
      "ĠHolland": 8698,
      "Ġconfiguration": 8699,
      "Ġhorizon": 8700,
      "ĠPittsburgh": 8701,
      "%);": 8702,
      "88": 8703,
      "Book": 8704,
      "Egypt": 8705,
      "GB": 8706,
      "IN": 8707,
      "Rand": 8708,
      "Rep": 8709,
      "SR": 8710,
      "SU": 8711,
      "South": 8712,
      "aism": 8713,
      "bar": 8714,
      "bran": 8715,
      "case": 8716,
      "dic": 8717,
      "eenth": 8718,
      "fam": 8719,
      "fare": 8720,
      "hum": 8721,
      "iens": 8722,
      "je": 8723,
      "named": 8724,
      "oil": 8725,
      "pus": 8726,
      "rh": 8727,
      "tun": 8728,
      "trans": 8729,
      "uct": 8730,
      "uels": 8731,
      "vement": 8732,
      "yt": 8733,
      "Ġ*": 8734,
      "Ġib": 8735,
      "Ġtalk": 8736,
      "alin": 8737,
      "although": 8738,
      "alysis": 8739,
      "itzer": 8740,
      "Ġwire": 8741,
      "Ġwrong": 8742,
      "oria": 8743,
      "arity": 8744,
      "Ġfirm": 8745,
      "Ġpages": 8746,
      "rous": 8747,
      "Ġmal": 8748,
      "Ġtox": 8749,
      "lections": 8750,
      "Ġdance": 8751,
      "Ġhuge": 8752,
      "ĠTop": 8753,
      "Ġthin": 8754,
      "ĠSud": 8755,
      "ĠSnow": 8756,
      "ams": 8757,
      "idine": 8758,
      "chang": 8759,
      "ader": 8760,
      "unennium": 8761,
      "Ġgang": 8762,
      "Ġgirl": 8763,
      "istence": 8764,
      "ĠIV": 8765,
      "ĠIreland": 8766,
      "Ġalky": 8767,
      "ĠThetis": 8768,
      "ĠBall": 8769,
      "ĠBrown": 8770,
      "ĠBureau": 8771,
      "Ġstores": 8772,
      "ĠPass": 8773,
      "ĠPoint": 8774,
      "ĠHou": 8775,
      "ĠHind": 8776,
      "estial": 8777,
      "odel": 8778,
      "iffer": 8779,
      "agan": 8780,
      "ĠGil": 8781,
      "Ġvector": 8782,
      "Ġvulner": 8783,
      "abeth": 8784,
      "ĠNort": 8785,
      "Ġexclud": 8786,
      "Ġhex": 8787,
      "Ġhealing": 8788,
      "oglyph": 8789,
      "Ġseats": 8790,
      "Ġseeds": 8791,
      "ĠOil": 8792,
      "ĠJon": 8793,
      "eller": 8794,
      "Ġchart": 8795,
      "Ġchair": 8796,
      "ĠKon": 8797,
      "ĠKansas": 8798,
      "Ġcompound": 8799,
      "rub": 8800,
      "Ġshop": 8801,
      "Ġplains": 8802,
      "apacity": 8803,
      "Ġenorm": 8804,
      "Ġperip": 8805,
      "Ġperception": 8806,
      "Ġsched": 8807,
      "ismat": 8808,
      "Ġspear": 8809,
      "Ġphone": 8810,
      "lication": 8811,
      "ĠConstant": 8812,
      "Ġattend": 8813,
      "Ġfilmed": 8814,
      "chestra": 8815,
      "Ġdefine": 8816,
      "Ġ41": 8817,
      "Ġsurpass": 8818,
      "ĠYears": 8819,
      "Ġtransm": 8820,
      "Ġtransmit": 8821,
      "ahl": 8822,
      "2011": 8823,
      "Ġtrack": 8824,
      "Ġfollowers": 8825,
      "ĠIndians": 8826,
      "ĠNews": 8827,
      "ĠAnders": 8828,
      "exts": 8829,
      "pected": 8830,
      "annes": 8831,
      "Ġbuy": 8832,
      "Ġsmallest": 8833,
      "ĠAgriculture": 8834,
      "Ġminerals": 8835,
      "Ġamongst": 8836,
      "Ġtermed": 8837,
      "Ġstatu": 8838,
      "Ġstatues": 8839,
      "Ġbrown": 8840,
      "Ġ99": 8841,
      "Ġapproaches": 8842,
      "ĠTurks": 8843,
      "eek": 8844,
      "Ġpractition": 8845,
      "Ġpatients": 8846,
      "ĠMarily": 8847,
      "Ġdemands": 8848,
      "Ġnorthwestern": 8849,
      "Ġglob": 8850,
      "III": 8851,
      "Ġanthropological": 8852,
      "Ġdrink": 8853,
      "Ġpredators": 8854,
      "ĠBlue": 8855,
      "2009": 8856,
      "ĠBrÃ¸nsted": 8857,
      "ĠHeracles": 8858,
      "Ġskills": 8859,
      "Ġcivilian": 8860,
      "Ġseparation": 8861,
      "Ġtreatments": 8862,
      "Ġ1958": 8863,
      "Ġgenre": 8864,
      "Ġseeking": 8865,
      "Ġelectronic": 8866,
      "monaut": 8867,
      "Ġguarant": 8868,
      "Ġinformed": 8869,
      "Ġsymbolic": 8870,
      "ĠPolish": 8871,
      "Ġvictories": 8872,
      "Ġcommercially": 8873,
      "Ġdiagn": 8874,
      "Ġzones": 8875,
      "Ġindicates": 8876,
      "uthor": 8877,
      "Ġexecuted": 8878,
      "Ġaudiences": 8879,
      "hetics": 8880,
      "Ġsubset": 8881,
      "Ġfrequency": 8882,
      "Ġboundaries": 8883,
      "riminal": 8884,
      "Ġ1859": 8885,
      "Ġbrothers": 8886,
      "Ġpreservation": 8887,
      "Ġdecrease": 8888,
      "ships": 8889,
      "Ġinhabited": 8890,
      "Ġweakness": 8891,
      "Ġvillage": 8892,
      "Ġnarrative": 8893,
      "Ġrarely": 8894,
      "ridor": 8895,
      "ĠObserv": 8896,
      "ĠHermes": 8897,
      "Ġseemed": 8898,
      "Ġrainfall": 8899,
      "Ġsynthetic": 8900,
      "ĠSamuel": 8901,
      "Ġprefixes": 8902,
      "Ġcustom": 8903,
      "Ġapparently": 8904,
      "Ġsyllable": 8905,
      "Ġarranged": 8906,
      "Ġarrangement": 8907,
      "Ġmanufacturers": 8908,
      "Ġrevolutionary": 8909,
      "Ġbiggest": 8910,
      "Ġcosm": 8911,
      "Ġáº": 8912,
      "Ġlibertarian": 8913,
      "Ġportrayed": 8914,
      "ĠProposal": 8915,
      "opteryg": 8916,
      "Ġmoderate": 8917,
      "Ġneighbourhood": 8918,
      "ĠTerritory": 8919,
      "Ġsenior": 8920,
      "ĠPtolemy": 8921,
      "Ġconscious": 8922,
      "Ġtongue": 8923,
      "Ġbiocapacity": 8924,
      "ĠOhio": 8925,
      "Ġculmin": 8926,
      "ĠFreedom": 8927,
      "98": 8928,
      "Aruba": 8929,
      "Bl": 8930,
      "Kurosawa": 8931,
      "Mem": 8932,
      "Sever": 8933,
      "Writ": 8934,
      "cen": 8935,
      "eu": 8936,
      "even": 8937,
      "fess": 8938,
      "hyd": 8939,
      "iya": 8940,
      "jans": 8941,
      "lantic": 8942,
      "nals": 8943,
      "tra": 8944,
      "yren": 8945,
      "zed": 8946,
      "ĠâĢĶ": 8947,
      "Ġille": 8948,
      "Ġaqueous": 8949,
      "inian": 8950,
      "onaut": 8951,
      "Ġsight": 8952,
      "isa": 8953,
      "isp": 8954,
      "esian": 8955,
      "Ġcraft": 8956,
      "alem": 8957,
      "aline": 8958,
      "Ġwear": 8959,
      "aried": 8960,
      "Ġfer": 8961,
      "icts": 8962,
      "icular": 8963,
      "Ġpup": 8964,
      "Ġbed": 8965,
      "Ġbot": 8966,
      "Ġbacteria": 8967,
      "Ġbricks": 8968,
      "ĠAre": 8969,
      "ĠAff": 8970,
      "rox": 8971,
      "roids": 8972,
      "Ġmud": 8973,
      "Ġmuc": 8974,
      "Ġtoler": 8975,
      "lell": 8976,
      "Ġdiet": 8977,
      "Ġhatch": 8978,
      "ĠSund": 8979,
      "ĠSocial": 8980,
      "usa": 8981,
      "uses": 8982,
      "idency": 8983,
      "cho": 8984,
      "ivered": 8985,
      "ĠCr": 8986,
      "ĠCapt": 8987,
      "ĠCook": 8988,
      "Ġisomers": 8989,
      "Ġ120": 8990,
      "istive": 8991,
      "ĠMaj": 8992,
      "ĠMinn": 8993,
      "ĠMeth": 8994,
      "irie": 8995,
      "ĠId": 8996,
      "ĠIvan": 8997,
      "ĠBates": 8998,
      "ĠBurn": 8999,
      "ĠBeng": 9000,
      "Ġstands": 9001,
      "Ġstored": 9002,
      "emed": 9003,
      "ĠPope": 9004,
      "ĠHyd": 9005,
      "umental": 9006,
      "ĠEst": 9007,
      "ĠEvery": 9008,
      "avid": 9009,
      "ĠGi": 9010,
      "ĠWood": 9011,
      "ĠWild": 9012,
      "aca": 9013,
      "acrit": 9014,
      "ĠDj": 9015,
      "ĠDar": 9016,
      "ĠDoc": 9017,
      "Ġ1918": 9018,
      "Ġ1917": 9019,
      "Ġ1912": 9020,
      "ocated": 9021,
      "rium": 9022,
      "Ġrational": 9023,
      "Ġunlike": 9024,
      "Ġununennium": 9025,
      "ardo": 9026,
      "ĠAlm": 9027,
      "ĠAlphabet": 9028,
      "ellular": 9029,
      "endar": 9030,
      "angel": 9031,
      "Ġnotice": 9032,
      "soft": 9033,
      "Ġcontexts": 9034,
      "ĠStalin": 9035,
      "ibl": 9036,
      "ĠArctic": 9037,
      "ĠVict": 9038,
      "Ġspeaking": 9039,
      "iki": 9040,
      "teenth": 9041,
      "ĠConn": 9042,
      "Ġassault": 9043,
      "Ġpopul": 9044,
      "Ġthereby": 9045,
      "ropolitan": 9046,
      "Ġinfinite": 9047,
      "gery": 9048,
      "Ġcoat": 9049,
      "2018": 9050,
      "Ġimpress": 9051,
      "Ġendors": 9052,
      "Ġtraced": 9053,
      "Ġterror": 9054,
      "ĠAnglo": 9055,
      "ĠEnd": 9056,
      "ĠZe": 9057,
      "Ġaddressed": 9058,
      "Ġ1978": 9059,
      "conomy": 9060,
      "ĠOrthodox": 9061,
      "elson": 9062,
      "ĠEmir": 9063,
      "Ġimports": 9064,
      "Ġimported": 9065,
      "enna": 9066,
      "ĠOnt": 9067,
      "ĠOnce": 9068,
      "Ġowners": 9069,
      "Ġwilling": 9070,
      "Ġrequiring": 9071,
      "Ġstatistical": 9072,
      "Ġdivide": 9073,
      "Ġmeanings": 9074,
      "ĠAdv": 9075,
      "Ġready": 9076,
      "oxide": 9077,
      "Ġperforming": 9078,
      "Ġindustries": 9079,
      "Ġprotected": 9080,
      "Ġsocialist": 9081,
      "Ġinvolvement": 9082,
      "sequently": 9083,
      "Ġinstruct": 9084,
      "2004": 9085,
      "2007": 9086,
      "ĠMedic": 9087,
      "Ġcrime": 9088,
      "Ġ1923": 9089,
      "Ġ1928": 9090,
      "white": 9091,
      "Ġwider": 9092,
      "Ġvolunt": 9093,
      "Ġcommerce": 9094,
      "1964": 9095,
      "Ġclosest": 9096,
      "Ġconcerning": 9097,
      "Ġdisputes": 9098,
      "Ġillness": 9099,
      "Ġdiacrit": 9100,
      "Ġfacility": 9101,
      "Ġ1905": 9102,
      "Ġ1781": 9103,
      "Ġelementary": 9104,
      "ĠMountain": 9105,
      "Ġgrounds": 9106,
      "Ġjudge": 9107,
      "Ġconventions": 9108,
      "Ġsteel": 9109,
      "Ġcompetition": 9110,
      "Ġdistributed": 9111,
      "helm": 9112,
      "ĠPaper": 9113,
      "Ġexhibit": 9114,
      "Ġsurvive": 9115,
      "Ġrotor": 9116,
      "Ġcircuit": 9117,
      "ĠâĪĴ": 9118,
      "ĠCaquetÃŃ": 9119,
      "ĠTennis": 9120,
      "Ġpregnant": 9121,
      "Ġdecreasing": 9122,
      "Ġsurrounded": 9123,
      "Ġhousehold": 9124,
      "Ġconsumer": 9125,
      "Ġconsequences": 9126,
[...]
